FFB0
0043
FFEF
0010
FFBB
0057
0040
FF9D
FFD8
0031
0051
004E
0053
003F
0047
0057
FFEB
0050
FFCE
0005
00A0
FF99
0072
FFA4
0035
FFF2
FFDB
FFDD
0047
FFFD
0017
FFB4
FFFE
002B
0010
FFFA
FF81
004B
FFA7
FF18
FFC3
FF9C
FFA3
00EF
0030
FFA2
0011
0057
004A
FFCA
FFDB
0043
FFC1
002E
003C
0035
FFB1
00D7
0047
FFE2
0044
0047
FFC1
FFE8
FFB3
001C
FFAF
FFE0
FFB7
006B
FFD3
0046
0076
FFA6
003A
FFFA
FFDF
FFC0
FFCF
FF5D
000C
FFA4
FFA6
FF79
FF80
FFA0
FF5C
FFEE
FF9C
008E
FF94
0057
0041
0042
0032
00F0
FF96
004A
0114
002C
0063
FF42
FFAB
0081
004D
FFF2
003E
FFDB
0034
FFB7
FFE1
FF81
FFAB
0043
FFCF
00EA
FFDF
FFEF
FFE7
FF9C
0019
FFFA
FFB3
FFC9
FFAC
FF1D
FFDC
FFF4
0058
FF82
022D
FFD3
FF99
FF39
FEA2
002C
0051
FF81
FFDB
FF6A
0143
0031
002B
0025
FEDF
0011
005B
004D
FFB7
FFF7
0054
0070
0033
FF9C
005D
0062
FFA0
00AE
000C
0060
FFEE
FF09
FF86
FFDF
0028
FF71
FF84
FF8C
FFD4
0007
FFE2
FFE6
FFEC
FFD0
0058
000F
FF90
0036
0016
0050
FFCE
0078
0064
FFEE
FFE5
FEA1
0026
FF51
FF93
0042
FFA4
0027
0075
008B
001E
0045
004B
0052
0025
0001
0039
0082
0092
0015
006F
FFAF
FFA7
003E
FF93
FF92
0018
FDD0
FFA6
FF6B
0044
FEA1
004A
006C
0027
0033
0029
FF9D
0077
0044
0018
011A
FFA8
003E
0008
00D1
0078
FFA3
FFF1
0015
FF8B
000F
FF63
FFFD
0055
0045
0021
00AD
FFDF
001F
0032
FFFF
0032
FFEB
0049
FF65
FFCA
FEA9
FFBC
FFC8
FF94
FF12
FFC9
0047
FFCB
0009
FFBD
003B
FFA5
0054
0000
0081
000E
0020
FFE8
0030
003B
0058
FFB2
FFFE
0033
0078
FF93
0004
FFC7
FFA5
0032
FF53
0043
0017
FFFE
007D
004D
0040
0045
FFDC
FFDF
0009
003C
FFD7
FFAB
0048
FFA9
FFE8
003C
FFA5
0036
FF9D
FFCA
FFA2
FFA8
0099
FF9E
FF16
001C
0049
009C
FF8F
0016
0060
FEE9
FFE2
00AA
FFCD
FFF5
0022
0074
FFBF
003C
FFAB
005B
FFDE
FF93
FFF2
00C6
006C
002A
FFB7
FFB9
0035
0025
0023
0009
001E
002C
0006
FFD7
FFF5
0046
004A
FD31
003D
FFEC
FFCE
FE98
FF20
FF99
FED5
0155
01E4
FFAB
0064
011C
003B
FFBD
0071
003E
FF6E
0062
FFBD
FF31
004E
004A
FFA4
FFF5
FFDA
FDF2
FFC6
001C
0068
005F
00D7
0031
FFA8
0125
FFC2
0036
FFB0
003B
FFC6
0058
0047
0045
0016
FF97
0000
018B
FCF9
00BA
023D
FF1C
FFBA
FFA0
0165
FFA5
0252
FF71
FFEA
FD96
0017
FE8B
003B
FFB4
0099
0072
FFED
0101
005B
004B
FC63
FE54
0040
005D
0031
004F
FFA4
FE4F
FFAD
0200
00D8
003F
0020
FF47
0052
003F
012A
FF76
FE21
FFB9
FD53
FFC3
FF94
0017
00AC
FF93
FFB3
0057
004A
003D
0037
0054
FEB1
FF8F
004A
FFD4
0033
FFBA
0004
00A5
003B
0051
00DD
004B
0001
00C9
00BA
00FB
004E
FFD8
0105
FFD6
FFC0
FF69
0074
FF8B
004D
00DE
FF7E
0043
00A3
003E
0028
FFA6
FFB8
012B
002E
002D
FFB2
FFFB
006F
0068
FFE0
FF41
FFD1
FFD9
FF95
0066
0034
003B
001B
FFD7
0002
FF8D
0050
003B
0006
FFB9
0013
00F2
FF94
FFAE
FFD6
FF3C
FFC6
FFC7
FF14
FF73
FFC0
FFFD
FF6E
FFF0
FFB0
0004
0030
FFC4
0035
0048
004F
0070
0050
0022
0027
0014
FFA2
FFED
FFCD
FF9A
002F
0048
000A
0013
0013
FFC0
FFA7
FFB8
FFF2
003F
FFF9
FFE9
005F
FFB2
FFAD
FFA2
FFAE
FFF4
0048
004E
FFB3
FFDB
0040
FFC6
003B
0051
FFA8
00A8
FF47
FF22
0338
0454
FE99
FFB7
FF92
FFA5
FC04
004A
FB45
0000
FFB1
FE88
FF25
005C
00B6
FF86
FF92
0014
0098
FFC3
FFC9
0018
0041
FFA0
003A
0010
0006
FFB4
FFB0
FFA5
FFCC
0023
FFD5
0007
000B
FFB5
FF9A
0064
003E
004C
004D
003F
010E
FCFA
0769
FF74
FF02
FF5C
FE75
FEEB
02B0
F6EF
FFD2
FFB2
FFAE
FD47
00C7
0232
FE32
021B
FFDC
FEAD
F890
0052
FFAE
FE39
FFBF
F963
0041
030E
0186
001E
FF8C
0094
FFAA
0043
FDCD
0070
FF63
0038
0067
00F8
0049
FDBE
FBE6
F962
055E
0BEB
FA61
FA44
FF80
FCCC
FEBA
00FA
04A5
FBEA
FE0F
0143
FFCA
0041
FC94
FF83
F988
0232
0079
FFA0
036E
01B1
FFE0
0057
F827
FFA2
06DC
014C
0035
007D
FF0C
FFA8
0100
0138
005B
000F
FFFD
0070
FDBD
0080
FEA3
FFBB
FF98
0021
FFAD
FF9B
0002
FE8A
FA93
FFE7
FFB3
05B0
FFC4
00C2
0385
0030
FFDE
FA0B
FF69
0048
0082
FFB1
0197
FF1E
FFDB
FFB2
FF29
0144
FE4D
FFA4
0069
FF9B
FFA7
0059
00EC
0062
FFA5
FFCC
005A
01B1
0119
FF9D
FDA2
0052
000D
FFB6
FFA5
FF9B
005E
FEEA
00A3
FFFB
FFBA
FFD1
FF40
006D
FEBF
0094
0072
FFB5
001A
FF64
FFF3
FFB8
001C
FFD6
FFEA
FFAB
00CA
0022
0037
FFAD
0090
FFEB
FFB9
0035
007F
FF88
FFC9
FFD9
FFA6
FF8E
006F
FFBC
001F
006E
006E
0034
0050
FFB5
FFF7
FFE4
FFFC
FFFC
FFE0
0035
004A
0015
FFC7
0018
FF2B
FFC2
0005
FFC7
FFBC
FFE6
FFFD
FF92
000D
FFEF
003D
FFA8
FFB1
FFC3
0029
FF91
0069
FFC3
FF87
0025
0049
003B
FFC3
0032
FFB4
006E
004B
FFB4
0046
0052
013D
0048
FE38
003C
0294
0094
005C
0306
FECB
FB99
FBBF
003F
FFAC
FDE9
FE10
FFC5
00AC
FF62
005E
FF0D
FFA6
FF44
FF8B
0006
005A
FF92
FF01
FF19
FEFF
FFAA
001C
000A
004F
00E1
FF05
FF85
0081
0011
0125
0005
002C
FFFE
00E5
0056
070A
FB76
FE7E
02FF
FF9E
FD37
0531
FBA6
F712
F555
00C6
FBA5
FE62
FB95
FFFB
FF90
FD1B
0403
FE66
F8CB
027F
01A3
F98E
00C0
FD94
FEA0
03F3
FF76
002D
FFE6
0135
00C3
0324
FEA7
FC96
FFAE
FFBE
FE06
FF84
FFD3
FC4B
FD94
0507
F7AB
FFBA
FD0E
07A4
FF87
FC07
FE20
0545
FD84
02A3
FE06
F908
04A6
0023
0053
FAB7
FEF8
004A
FF7B
00D3
FA3E
0655
FCC1
FD41
00EA
0053
005F
0626
FF9C
FE03
FE26
FF90
FF6D
0034
026E
FF77
00AF
FDC3
014A
00C9
FF54
FBA5
FFE3
0005
00EF
01A8
0007
0236
008B
F92B
023A
FE18
FD53
FFB1
00FD
0054
0066
0012
FE36
FE7C
FF7C
FE88
FFC4
FFB5
FE72
FFBE
FBCC
037F
008E
0187
FF90
FB81
FC8E
FD05
0199
FFCF
0049
FC9A
009C
0054
050B
FF8E
FFBC
FEC3
FE15
00C6
FF55
FFAB
FFD7
FFA1
FFBB
005F
FE4C
0078
FEF4
FFAF
FFAC
FFCA
0146
FFD2
0015
00B8
0076
FFAE
0000
FF5A
FFEC
FFE1
0029
004A
FFB7
002A
FF1F
004C
0025
003E
002A
0060
FF37
0045
FFE4
0023
FFA3
003F
FF9E
0056
00B8
FEEF
001E
002E
FF90
FFB6
004C
0051
0043
FF62
FF79
0041
0048
004B
FF91
003B
001B
FFE9
FFEC
0041
0027
FFD4
FFC5
00BC
0025
0044
FF9C
FFC5
FFA3
FF47
0035
FFD1
FFD4
FF65
FF8D
0027
009E
FFE3
0039
FF94
00C2
001D
FFD7
001F
0006
0030
FF9B
FECB
FF8C
0544
FC3D
0107
FC2B
FF3F
FEF8
FEEB
FFD1
FFA3
FEE6
FEB7
FF85
FD72
FFC8
0041
FEF4
003D
0060
0008
0053
00ED
0100
005F
0076
0051
FFF3
0004
00D1
FF96
002A
0046
008D
00C2
0032
0094
0048
FFA7
FEB5
010B
FE5C
FFC3
FD30
FCF5
040F
FF45
FF13
FEC7
FC5F
FF2E
FD1E
00E6
FBF4
FE9C
FF4B
00EA
002B
FD13
03B9
0043
FC79
0107
FFC7
FD9F
0418
0240
0309
01B2
FD13
FED9
0159
003A
FE0E
025D
FF85
FFA6
FFE9
FF95
FD2C
FFA6
0009
FEBB
FBD8
FDCB
FFF7
0013
00CB
02BD
014D
0043
006D
004C
FD3C
0036
FFAA
FF8A
014F
FD88
FEE1
FFA3
FE2C
014E
0282
0762
FE64
FD3E
FD4C
FC32
051B
003C
FFBD
FC96
FF8E
F70D
FADF
0038
FFD0
FD5A
01E1
0013
0089
FC0B
FFA6
FF0C
004A
FF15
FF9B
002D
FFB4
FE5B
FB02
FF96
FF1C
00BC
0520
003E
FFC0
05CF
03AC
0023
FF84
015F
0044
FFCE
015B
FFDE
0055
008C
FE76
017C
FE69
F75A
01A4
FECB
002E
F8F6
0041
FA38
0077
FE53
00BA
FE9C
FF0B
000C
0148
FF99
0147
0067
002D
FFB7
0045
0052
FFAB
00C5
0032
0037
FFA0
FF7F
FFA0
004A
0007
FF85
00D0
FF9D
004D
0037
FFBF
FF7C
0034
FDB1
0011
FFAA
FF29
0123
FFD4
FCA6
FFBE
FE74
0036
005F
FFA3
0022
009F
FFC5
004D
FFFE
004C
0027
FFB6
FF81
00F9
FF66
002C
00AF
00C7
FFEF
001C
FFE5
FFF2
00FB
0032
FFE0
0013
FF96
0031
FFF9
0089
FFA0
0022
FF70
FF81
0027
00CB
FEAD
0013
FFAD
0053
FEE5
FFA4
FFD8
FFA7
000B
FFC9
004E
FFC9
FF97
0035
0014
0021
FF85
00AC
FFA7
FFA1
FFC2
FF8A
00A6
FFDB
005F
FFFE
FFAE
FFC7
FFBA
0039
FE7B
0018
001F
0029
0037
0097
0072
0033
FFBA
FFCF
FFAC
0033
FFA2
FFB7
FE8B
0069
FFC5
FF8D
0056
0045
FFC1
FFA5
FED6
FFCA
FF7F
FF87
FFD5
006A
FFE7
FFFF
00BD
0066
0011
FFB0
FFA2
FC37
FFA3
0010
FFC8
00F4
FFE8
006D
FC17
FFAD
FFD3
FF98
FFC1
028C
00AC
FFA5
FFD0
FF5D
FF8D
00AC
029A
FFA9
FD28
FE74
FFF5
0082
0000
027F
01C6
FF96
FF5E
FD8F
FFC4
FFC9
000C
FFB6
0050
0075
FF69
020B
FFED
FFDE
007D
FE5C
FF9B
009F
0080
004C
FCC4
0012
0052
FEF1
0026
005B
FF47
FFA6
05B1
0061
FFD7
FC54
FF12
0074
FFAC
00A9
0044
FFD4
FE77
00BA
FDAD
0050
0208
FDFA
FF99
FE75
FFB2
FBE5
0040
FFA3
FFAF
0155
003B
0004
FF8F
0035
00E5
FF73
010B
FFFC
FDA5
FFA6
FF5D
FFFE
FF83
FFAA
0006
FFD7
0072
0044
041C
03BA
019D
0071
00E1
00AF
FFB3
0062
00D6
FE17
FE7A
0014
FF57
FE7E
FE86
0036
FE5C
FF6D
FC82
FFE6
FE2E
003E
0016
FFE1
FFEA
FFD2
004B
FFA5
005B
0055
0018
0034
01BA
010A
002A
FFA2
002F
004B
FFE0
FFD7
FFC2
00DE
003B
FFA6
FFF3
FFDF
0062
FFDA
00B5
FFE0
FF84
FFB2
FE8C
FFD0
FFA5
FE25
004A
FF83
FD74
FF24
FCEE
FF5F
005C
001A
004F
FFD7
0097
FFB1
005F
FFC9
FFCB
FFAB
00EE
FFDC
FF91
0082
0119
FFA0
FFBF
FFA3
FFCE
FFF2
0000
FFC8
00E0
013E
FFD0
FFA4
0025
0077
01A3
0012
004D
FFDD
0000
FFA8
FF94
FFEA
FF75
005A
0072
FFB9
FFAD
0037
004E
0055
0042
FF84
FF70
FF7F
FEA5
FFA1
0014
FF88
FD7F
FE30
FF9E
FFBA
0286
FFC0
FF59
FFB8
FFBA
0034
000E
FFF8
FFE7
00A3
004A
FFBB
FFD2
FF9C
FFAB
00D8
FFFE
0123
004A
00B4
FFB8
FFB1
0112
FF56
0030
0049
008F
FFFB
FFCC
FF4C
0062
003A
FF9B
0048
FFAB
FFC5
FF91
FFB6
FFA0
FEF7
FEC9
FFD0
FFD5
0130
0072
0024
0024
FFE2
0047
0060
FF8D
0031
0092
FFB2
FFD2
FFB6
FFE2
00F9
FFD5
FF9D
0015
0059
FF90
FFE9
FFD3
0074
FFB3
FFA7
0055
FF45
FFF4
FFAD
FEDA
0056
0032
0052
FF73
002F
FF7B
003D
FF7C
FFF2
FF93
FFA7
003A
0003
FF2D
01A3
FFEB
001F
0044
FFA7
008B
FF44
FFB8
FFFF
FF7E
0114
005D
FFDD
0208
FF62
0061
00D7
0093
FD8D
FEFC
FFDC
FF9C
FFEC
FF85
0031
FFA6
0029
0018
FFC7
FFA7
FF94
004B
FFBF
FFA8
0031
FFF3
FEDB
FFAA
FFA6
FFA6
0064
FE7E
FF7C
00BA
FFA1
FFB4
FFF0
0037
FF9C
0076
004D
002D
0055
FF9B
003A
0029
015D
FF9D
0004
0052
006D
FF85
0127
0042
0159
00A6
0072
FF6D
FFC6
FF7B
001A
FFB0
0079
0031
002D
FFA8
FE5D
FF39
FEC6
FF9A
002B
FEF4
FE83
FFA0
FFC5
0223
FFF5
FFA8
0077
0076
007B
FE42
0108
0084
0047
0085
002E
FFDB
FFA2
0121
01AA
0045
002C
FFBB
FFC5
0175
000A
FF9C
0028
FFD0
FFC3
005C
0017
FF78
FFCD
FFE3
0047
FFAE
FEFB
FF38
FD08
FF32
FF6A
0050
FEB8
FC78
FFC3
FF43
0080
0054
FF9D
00B8
0045
FF8A
FFA0
0021
004F
FFBE
FFAE
FFA5
0076
FFB6
001F
00A5
0054
0050
FFA3
0025
FF9E
FFAF
FFEC
0074
003B
0093
0006
FFAC
0005
FFD2
0155
0020
FF94
FEEF
0008
FFA0
FF01
0004
FFC1
FF0D
FE93
FF67
FFB6
FF88
FFB4
003B
FE53
FF0D
FF78
0048
FFC3
FFC0
FFEB
FF96
0056
002D
FE7C
0006
0189
FFD9
004D
FFE0
FFEC
FFDD
000B
0032
FFD5
0023
00A0
0044
0026
0022
0120
00C4
004F
FFAD
00A7
0024
006B
FFA7
0050
0011
FFED
FFB6
FFA8
FFF8
FD18
0046
01AA
FED3
FBB9
FFA2
00B7
FE4F
FFBC
FF5D
FF5B
FF6C
FFE2
0041
005D
FB5D
FFE8
FF3C
0035
FFF2
FF2F
FFA6
0038
FFE7
0017
FFA6
FFB0
FDCF
004E
0052
003B
FFA7
003F
021D
010D
FEB1
FFD4
0052
033E
0047
0193
0027
006D
FCEB
FCDA
FFC4
FEC8
0045
0059
01F0
0135
0050
FFAA
01D3
FECA
038A
FFE0
007C
FC9B
FF71
FD7E
005F
FE16
FE91
FCC4
FE5A
01DD
FFB7
FF77
FC30
FD18
FDFA
FF9F
FF48
FF8C
003A
001E
0166
022B
017C
FFA3
017B
0057
0088
0022
0031
FEAB
FED7
FF93
FE4F
FFA9
FC23
005B
0107
FEBF
FD3C
0000
FFF6
032C
FF79
00A3
FCFB
FF7F
FFB9
0029
FFEC
FFD3
0001
0019
01F1
FFB3
008D
0048
00C4
FFBD
0065
FFA6
FFB5
0016
01EF
004A
024A
FFC4
00F9
01CE
0027
0041
FFCB
0096
0128
004D
00A6
FFA8
FFC2
FF9C
FF57
004C
FFC6
FF9A
004A
0015
000F
FC6F
00D7
FFB2
FF2E
0048
0046
0044
0008
FE94
FFAB
FF58
00D3
003B
004E
FFCF
FF9E
0084
0047
004D
007E
001E
003D
FF05
004B
FF90
0028
0060
FFA5
FF89
00A1
01BF
FFD3
FFA7
FFA9
001E
FF9C
FFE7
0002
FFBA
0055
FFBA
0003
FFAD
FFBD
0012
001F
0052
FFB1
0006
0104
FFA7
FF9B
0049
FFA6
0132
0054
0022
FFC0
FFEB
FF5B
009F
003F
FF91
0022
FF83
FFA0
FFB8
005D
FFA9
002D
FFDD
FFC1
0038
005D
FB1A
04FE
FC0A
0229
FF9C
FF9B
01F0
FFB7
FF93
FC8F
0036
FFAC
003C
FE9F
00AA
FFBE
FF60
FFDD
FFE3
005A
004D
005F
0097
FFA1
0059
0071
FFE7
FFB3
FF78
0048
002C
FF4C
02FF
FF2E
0029
0054
011C
FF3E
013A
FFDD
FF4E
FFF0
0629
030A
FECB
F70E
0657
FFA8
FFBB
FBDB
004E
FCEA
F6F4
FE98
FDDF
01BC
FF40
009F
FDAF
FEEE
0335
FF46
FF9C
FF9E
FFC9
FA62
FCFF
FAC7
FD7A
FD36
FF7C
FE70
0098
FF15
FF4F
0286
001B
FC9B
FF74
01F8
0199
030D
009E
FF73
FA97
FF6F
F95C
02BE
0B8A
FF97
FACC
FD8D
F700
08C3
FFF7
01F3
FA7D
FBF0
0260
FF81
011D
FA3C
FFF0
FFAD
FFE0
0082
FEBD
00B4
FFCF
004F
FF45
FBE6
F97E
0015
0016
FDFF
FD94
FF85
01A2
01FF
FDD8
0103
FF9E
04CD
006E
009B
FECA
FB2B
016F
00F6
FEF8
030C
FFFA
00BD
FFD2
F730
FF7C
FF68
FFF3
FF85
02F8
0041
FF96
FF83
F9DB
FF4A
0047
001F
FE20
00D3
0057
FFC3
FE0E
FF01
FF05
0068
FD48
0195
FD29
FF41
FF79
FF9A
0254
0260
017A
0083
02E8
FF7D
FDFB
FF10
FE28
0125
014D
FE39
FF4A
FEB3
FDE3
0075
FCAF
FF23
FFBC
FEAA
005E
017F
FCFB
0074
FEF1
FEDA
FE49
0046
0046
FF17
FFA6
006F
0055
0172
0068
0044
FFFD
0018
0102
003D
0049
00F7
FFAD
FF9B
FF93
01CD
FFBE
01F0
FFB4
00BD
FF91
00D0
FFA0
FFF5
FE33
FF74
FFFC
001F
FFE7
FFBB
006A
0037
FFB4
FFBC
FFE4
003E
FF9B
FFB0
0061
004A
004D
FFEE
0038
FFB3
004B
FFB5
0056
0042
003D
FF87
0044
0048
005F
00BC
FFF4
FFC8
005F
0020
FF8B
FFFD
FFC1
0059
FFEF
00AB
FFA6
FEC4
F9B0
00C9
FDF6
FFD8
05DD
002C
FFC6
FE52
FF9F
FAE6
FFAB
FFE9
FF70
FDD1
FF9D
027F
FF7C
FF2E
FFAE
0293
FFDC
FFCB
FD67
0041
FF7E
007D
FD93
FEEB
FF2D
FFC6
004E
FE86
0169
FFA8
027C
0200
FFE2
02AD
003D
0044
004B
004B
FD95
0044
0492
FC09
0316
065E
FE77
04C7
F803
F755
F708
FF95
F828
FAE9
FEE9
FF4A
0281
FDF8
0291
FF97
FF18
0125
FCE7
FFE0
04DB
007E
F720
012C
FB4C
FACF
006A
FFC6
FDA0
FF75
FBCC
FFA9
FF04
01B6
0046
0006
01DB
FFE1
FFEA
0506
FC89
005A
0042
03E6
0049
FC84
FF6D
04A3
FD92
FED5
FEB9
F5E6
FDD3
FE0E
FF61
03DE
FF40
0283
01F8
FFA8
FB6F
FF0A
FF8A
FF5B
F9D3
F726
01EE
07AD
FD97
FF7F
FEFD
FE86
FFAA
FD03
0067
013F
00D9
FE94
FFAB
0307
FFAF
0077
FFA0
FFA7
FF45
0181
FEBC
FF98
0048
FF77
035E
02CB
004F
FFA6
FCC8
FB34
FF3E
0082
0067
FFD8
016A
FE8E
015E
FFB6
FFC3
FF7C
FE44
0324
FCFB
002F
FF89
F93C
FFDA
FA8D
FF09
FF4F
01E1
0058
01B8
0172
0069
FFDD
FFFC
0196
FE5E
FE59
FF86
FF2D
FC78
FF2B
FFE7
022D
F707
00CB
FEE9
FEB4
0026
0187
FFA2
FF9F
FF9D
FFD2
FF80
FFC7
006B
FF02
0006
FFCD
0003
FFF1
00F7
FFA9
0034
0058
0222
FFDC
0210
FFED
0045
006C
FF30
0278
FFF0
02DF
FFCA
00A1
0058
FCE7
FFB9
FF94
FFAC
FFB8
0046
0010
006A
003E
0088
0075
0041
0068
FFA2
FFED
FFB3
00F0
003C
0036
FF96
FF98
FFB4
FEB4
FFD4
01D7
FFF3
0047
FFFF
FFDC
003A
FFAF
FF94
FFA6
FF98
FFA8
0011
FFC8
FF72
FFC5
003A
003C
FFA2
004E
001B
FFD6
0013
FE08
FF4D
004E
FF7F
00F4
FE52
0048
011D
FFA9
FE21
00A6
FFAF
FD2F
004F
FFBF
FF8A
FF3B
FEE0
01C4
0022
FEAE
FA04
005F
FF24
000D
FDE0
FF0F
FF2B
FEC5
FEDC
005A
0188
00EF
030C
0207
FEB0
020A
FFAC
0062
00A0
008C
FE05
FDFE
FD93
FFB7
0149
FF76
FE8D
07DD
006E
FD38
FD64
0559
FE5D
FC12
FEF1
00A3
FFBC
FC98
FBC8
FE3F
0197
00DD
FB24
F99B
FFFB
FF4F
0257
0054
0365
FF6D
002B
FE76
FFAD
007E
00BE
021E
FFDF
FF47
0134
FD70
0101
FFB6
FE89
FED9
00AD
002E
0229
01F8
03B8
FFA3
0507
FBF4
F7FD
FDF7
00F7
FB65
F7F6
FEEC
FF88
FFAC
FC9B
FC2B
00DA
FC6F
004B
FBF2
0004
FF95
FE37
FFBA
0065
0150
030C
007C
0048
FD4C
0184
FF6B
00BB
FFF0
FDCF
F8C9
003B
0129
FEA1
FFAE
FD46
FFE7
FDE8
01C4
FFBF
FFC6
FEED
07EB
00B6
FAFB
008C
034E
FFBC
FA14
FF20
FF8F
FF68
FF80
01E6
0070
FF61
FC74
FCF9
0043
0043
F729
00D6
FCF5
FE82
FEC6
FD5E
FFDD
00BC
0080
018F
034F
FDED
01A4
FB5E
00C0
006E
FF7D
0116
FBA1
FE36
0065
FFB4
016E
0047
FFEB
FBB9
FFD6
FFC5
0058
FF52
006D
00E0
FE4E
FF66
00D9
FFB4
0019
0058
0091
006A
FFB4
00BE
006B
FFA8
FD79
FF59
FD01
0035
FFBB
01C4
FFF7
016F
0056
0136
FFE8
004B
00BE
FFB8
FFA3
0052
FFE3
0076
0044
0059
003B
004A
FFB6
FF4B
03C4
003F
0058
00DD
FFDC
FFAB
0088
003D
0052
0059
0000
FDB4
FB4F
009E
FAEA
FEDE
0121
FF90
FD91
00EB
FFD8
FF17
FF92
FFFF
0040
FFB0
FFD5
FF5A
FCFF
FF9D
FFF0
FF1E
FEF7
FF8A
FFDC
FF99
FF9F
FFB7
FFED
0042
0036
0101
FF5D
003E
00AC
00B5
FFE4
FFFD
FF59
0037
FF8F
FFB8
002F
0053
FE1C
FCFF
0001
FF3E
FC79
FFAE
FF9C
FA1A
FFCB
FDC3
FE60
FCA6
FFAA
007B
003A
FFC9
00B1
0131
0056
003B
003F
0039
00C8
009E
0066
FBDB
FEDE
FFAA
004B
FFAE
FFA0
FF84
FD22
003D
002F
002A
FF15
00D1
0119
FF2E
FD98
FF63
FFD7
FD3F
FF5C
004A
FF94
FE4B
FEFB
FF86
FDDD
033F
FFA0
FF56
FF83
FFE4
FF93
FFC1
0040
0132
013F
002A
00B3
02FE
006F
0110
FFFF
FFE2
FDF0
FB3B
FFC5
0062
FF25
FEAF
FF9F
0017
FA50
0063
0056
011C
01DA
0045
FEEF
FD68
FF4E
0041
FE48
FFAA
FFA1
FDDD
FD31
FFBA
FF89
00DB
0068
FFAC
005A
FFA0
009F
008B
02AD
0169
0119
00FF
0063
0045
022E
0153
0104
FFA5
005A
FBD1
FD7D
0022
FFC8
006F
FFA1
FFF3
FF5E
FD7D
FDC1
02AD
01DF
01E2
FFA9
FFA2
FEEA
FF5E
FFF9
0006
FDB1
002B
FF9B
FF2B
018B
FE62
FE8C
FF18
FFF8
FEF6
FF7C
0047
FE19
0077
013D
004C
0182
0021
0057
004E
014A
0054
006D
004C
00B1
FF89
0062
0037
02AD
00C8
0054
002D
0020
006B
00D1
FFE8
01E5
0114
FFF1
FE7E
0036
001F
FF08
FE06
FEEC
0023
003F
0005
FC53
FE07
FE22
0065
FAD1
FFD4
00B2
FFA6
FEC6
FF96
FF81
FF95
FFC8
FFB1
FF73
FFCE
FF8D
FEEA
001C
005F
000A
002F
FFAA
0041
FFAD
001D
FF8A
FFAA
FFD7
FFBD
FFC2
0032
0157
FF51
001D
0048
0015
0002
FFC6
009A
000E
FFE5
00A5
FFB0
FFAB
001B
FFA8
0010
FFA7
00FF
FF9D
FFF2
006D
FFD9
003E
FFB2
FFCB
FFD5
0059
FF7A
FF8B
0031
001C
002A
FFA7
0061
003E
FFF9
FFDA
0031
FF44
FFAE
FFAF
FE43
FFEE
0045
FF39
FFE8
0069
001D
FFF5
0037
004D
FFEA
FFA1
0036
FFD5
0056
003D
FFF1
FFA5
FF78
0159
FFB0
0040
0051
FF9F
006B
FFC3
002C
0013
0039
FFD7
002E
005D
00DB
FFB3
FFAB
0046
FFE3
0044
0025
007C
FEF2
0050
001F
005F
FFFA
FFC7
FFAB
003C
FFA5
0045
FFA2
FFEE
003B
FFB5
FFCC
007F
FFA9
0011
0012
0047
FF70
0011
FFB3
0068
001B
0021
FFFA
0084
FFAD
FFAA
FFFD
0013
FF92
001C
0050
0038
FFA3
00CB
FF94
FF9C
FFB8
0058
FF80
FFF0
FFA1
FF9F
005C
0019
FF82
0033
0015
00C7
FF49
FFC4
FEC9
004A
0098
FE5C
01E5
FFD7
0016
0066
0017
FFBF
003A
011E
FF2F
0059
0031
FF8B
0087
FFB1
001D
FF99
0012
FF56
004B
0011
0084
0098
0043
007D
FE12
FF77
FFD9
FF9B
001C
FFE6
0033
FFF0
00B7
005C
0035
FFCA
0087
FEFA
0006
0029
FFA9
FFAA
FFE6
FFBD
010D
FFE3
FF78
FFE8
FFAE
0081
0046
FF91
FFF4
004A
FFAA
000D
002E
FFA4
FFA9
002F
000C
FFE1
0012
0041
FFC0
0037
0008
FFA5
003C
FFA2
0012
000B
FF9D
FFB8
0041
0029
00D6
000A
0016
004D
FFBB
FF4E
FF97
FF8B
FF97
0062
0001
FFF0
004F
FFAA
FFC6
0036
FFE1
FFA2
FF91
00A9
0043
0019
006A
0035
0000
FFE8
0005
0052
FEAE
0034
0044
0054
009A
0012
FF96
FFA4
FFBA
0069
FF92
0029
FFC7
FFBB
0038
FFB7
000F
FFA6
FFC3
FFE9
008D
002A
FF77
006C
0048
0014
FFC9
FF59
FF43
005C
004A
002F
FF5C
FF97
FF9D
FFB5
FF89
FFA9
001E
0054
FFBA
0038
FFB2
FF52
00AA
003B
0016
FF87
0200
FF55
FFA0
005C
FF5C
FFA0
FF7F
0046
0026
0010
0187
0038
0042
0024
0047
FFD2
FF99
FFAC
0049
FEDF
0039
00D4
0050
FFD4
FFA2
0024
FFA5
FD9A
FF2B
0042
FFA0
0054
0019
FF99
FFEB
0031
0052
FFC5
0029
004C
FF90
0034
FF91
003D
FFCB
0056
FFB2
0069
0289
005D
01E3
FF8C
FF22
0224
FF73
004F
FFF5
FEC1
FD92
FF55
FE41
FCF4
FFB9
FF68
FFCF
0016
00A9
FFC1
FFBC
FFA1
0032
00D3
FFD9
FD0F
0045
0006
0039
FD58
FFB1
FF4C
0011
0002
003E
0046
0038
00B8
0044
0042
018B
FFE4
000D
003B
FFAA
004D
FF97
FF48
001D
FD69
0019
FF68
FE22
FCE7
FFDC
FFC3
0027
0035
FF5B
FFAD
FF9C
FF92
FF6A
FFA1
004C
004A
FF85
FF12
FF3E
FF71
009E
FF9A
FF99
FF03
FF53
FF4E
001B
FFF8
FF2A
0038
0038
0220
007A
00D3
FD4C
FFAB
FF9C
FFB1
005F
FFA1
FFCF
01AC
FFBA
006F
005D
FF98
FFAD
002D
FE77
FEE4
FF8C
FF7F
0052
0033
FF59
FFDF
FF83
FFC7
FFB3
FFB5
FF40
00B9
0001
FF98
FFC3
FF98
FF84
0104
002F
FFCF
FEAD
FFA6
0032
FFF8
0053
0025
0044
0090
003D
FFC0
FFA5
FF1C
0052
0053
FFAC
FFB1
000B
FF96
FF97
FFC2
0055
FF9B
003F
FF97
003D
003F
FF96
0038
FFC8
FF84
FFC9
FE9E
0029
003E
FFAE
0033
003E
003C
FFE3
0003
FFEA
001E
FFC6
0041
0096
0056
001A
FF8E
002F
FFB2
000E
000F
FF21
FF61
FF85
FF6A
019A
0037
FF5F
00A7
FFD5
001D
FFD9
FFD2
0046
FFD3
0016
FFD8
0057
0041
FFA4
FFAF
FFCA
005F
00A5
FFF0
FFB8
FFAC
FFD1
FF84
FFA7
FFC8
0050
0026
FF69
FFB5
0036
00A5
06B0
FAE4
003F
0104
F845
FFDE
00C6
FFD0
006D
F87B
FF9F
003F
FF8C
002E
002C
FF8D
01BB
FFF8
FFDF
0001
004C
FF97
0032
FF98
FF88
001B
FFAA
FFA5
0043
0047
FF9C
0080
FF6C
FFCA
002F
FF7F
FFFC
0178
0080
FF9C
0013
FFAD
0341
007B
FD63
03F4
020E
FC3F
FFB1
FE9A
0206
04D6
FBE3
FDED
FFA6
01EE
0044
0062
0041
01C1
FF6A
FF7C
FF92
FC82
FFA0
FEA7
FF7A
FF5A
FEDD
FF7E
FFB7
FFA8
FD97
FF9B
FFAA
020E
00CD
FEBC
0051
FE50
01DE
FFE9
FDD1
FFC8
FE7D
FEF5
FFA6
011A
0050
0037
004C
FB2F
0016
0045
001B
0209
FEBC
FBF3
00EE
006C
00B7
FE54
0039
FD02
0023
FFA0
0051
00D1
00A8
00C5
014E
FC01
FF76
0030
004F
0069
0047
FB9A
010A
021E
FFF6
FF43
FFCB
FD4C
002A
FAB9
FEE7
FD6E
FFC6
FFA7
007E
0089
013C
FFF1
FF8D
FDAF
FF69
024F
03F8
FF6E
FF8F
00CB
0037
00D1
FF2B
00B0
0101
FF75
FF1C
FED1
FED5
FE39
FFA5
FF4F
FF5B
FD59
FD1C
FFF5
FCF7
FBF1
0114
0162
FEF6
FDD2
FFF4
FFD8
003E
002C
0074
FE3B
00C2
FFBE
FF48
FF5D
003E
FF4C
0032
00A9
003B
0017
FD5B
FF50
004B
001F
0088
00FC
0006
0068
006C
0016
FFD7
FFAB
FFA7
000C
FFD8
0037
0011
FF5D
004B
006A
FFB5
FE9C
FFBA
00D2
FFF9
FFB2
FFBF
004D
0022
019C
0013
000E
003F
0047
0061
0046
FFA9
0000
FF8F
0101
FFB4
FF67
FFB9
FFAC
FF8D
0048
0008
FFBB
FF78
0046
FF40
FFE2
FFA3
FFA0
0033
FF97
0048
FFAC
FFC6
FFA8
FFB5
002A
FF6F
01B9
004A
FF82
FFD5
FF8C
01AB
0059
FFE6
FF6D
FFDC
0044
FF76
FF91
0057
005F
FFBA
0441
F54F
030E
F70A
FFC5
0245
04A1
FEBD
000B
FD63
FFAF
FF98
FF3F
FF9F
FA7C
0337
0022
FF16
FF40
FFC9
FFDF
005A
FFAC
0158
FF80
000B
0008
FF4F
0151
FF71
FF2D
FFEB
FF13
FDFF
FFA1
01C9
FFB8
001D
005A
002F
FEE9
FFD7
002F
07BE
F455
0373
F706
FB68
FDDC
00C7
0116
FFAF
FB82
FD5E
FB71
FE3D
FC9A
FF97
03D6
FFAE
0394
FB57
0267
00D5
FF87
0209
FF99
038E
FFCC
FBC8
FC67
FFEF
0070
FAFD
002B
FDB4
FE38
FFFE
016E
FF77
0157
0047
FF06
FB32
0445
F92C
F702
F70E
0507
FF21
FDB7
F706
0AE9
0319
00BA
FDA0
FC7F
FE3A
0040
FC69
0335
02C2
00E5
009B
07B8
FC30
011D
0058
FE38
0454
0147
0077
F799
FF9E
FA12
0299
FFF8
FD51
FF6E
FFA3
00EF
0121
00E4
FF91
020B
0500
FC80
0011
FFA9
FF6F
0059
FF18
019B
0337
FD1D
FD0F
03C0
FDE9
0050
FF84
FB85
FF8F
FC7D
FDBD
02C4
0133
FFB3
01DC
FD95
FFE8
FF98
FF6A
0158
FFD6
033F
0156
FF3E
0072
FE3C
0028
FE52
01A8
FB43
02C8
FF97
FF3C
FDF2
FFE0
03F2
FA96
00E2
006B
FEAF
0080
FF0A
01C9
005A
FF8C
FF3D
FFC7
FDCE
FFBE
009C
004E
FE13
0104
005F
028F
0051
FFA8
FFAD
001F
0045
FF2B
003E
FF9F
FFDC
FFC0
FF9C
FFA2
FF94
007F
016B
FFBD
0035
0066
0018
FFD1
FF60
FF97
FF9F
0008
FFB7
FFDD
FFEA
0032
0061
FFE5
FF9E
FEAD
0050
FFC7
FFE5
FF97
0021
00EE
0033
FFC1
0043
FF67
005E
FFAF
FFC5
FF91
0051
0040
FFBE
005D
FFAC
000F
FFBC
FF64
FD5A
0055
FF9E
0055
FFAE
0069
0108
FF9E
0012
FFB0
0001
FFFF
FFB4
006A
FEA8
0185
FFA5
FED3
FE65
003B
FD89
FFC2
FFC2
003F
0057
0062
017B
00F4
FFE7
FF90
0040
0075
00EA
FFCB
FF94
FF4F
FD9C
0028
FF80
FF87
FE90
FF8F
02AE
01C2
FFD5
001E
FFCA
FEAF
FFFE
0128
FFFE
FFB1
FF99
004B
005E
0071
FD36
FFE4
FEF6
FEF6
FFB5
F6F5
FFD4
FFE3
048C
0133
0291
04D3
03B4
015B
FD7F
FE49
FCCB
0232
FE79
FEA3
0265
FEE7
002A
F78B
026B
FE9E
0008
FFC8
003B
00D2
FFD0
FF90
0055
002E
FDFE
FDA9
FEB2
FCF7
FEFC
FCDA
FF4E
0089
FFED
FFA4
0112
0055
0037
01BD
FD15
02BA
0173
0136
FFF2
FD9C
003D
FFEB
FFA0
F6F7
FBC9
F712
0319
FEF1
FF2E
0044
065B
FFA1
FB0C
045F
FAEE
F6FE
FE27
FDF0
FAEB
FEAB
F816
0690
FE3E
FEE8
FA74
FE87
FE35
FF7D
FE3E
FF9E
0000
0171
01A9
0041
FEB9
FC40
FFAA
FCEC
FEB3
FF3C
026E
FFE7
0274
00A2
059A
FFB3
FF7E
FE9A
FB8E
0137
0015
0200
00D5
01AE
02BF
FF69
0054
01F1
F8A7
00ED
00F0
0040
0034
0050
FA5F
FD16
FFB7
FFB5
FFBF
FFA4
FFAE
FC81
FF01
FFEE
00E2
03F7
FD4E
FF9B
0055
FFAF
FFD6
FFA4
00E7
007F
FF90
0046
FDCD
FFA9
02FB
0032
FFBE
000F
FFB0
0004
028F
FFA6
0026
FF70
FFE4
FF1C
FF4E
00C7
FFDE
FFFD
FFDA
0098
0003
FFBE
FFB1
004B
FFAC
FFC4
0024
007C
0013
FFA7
FF58
003E
FFA9
FFB9
FFB7
0045
0005
0027
FFA2
0074
0048
0025
FFB8
FFCB
FFBB
0055
004F
0026
FF85
FFE6
FF8B
FFBA
FFA0
003D
FE70
FFBD
FF37
01B2
FF81
0032
004A
0006
FEB5
000C
FFBD
004F
003B
FFC5
FFF5
0025
0021
0014
FFE5
0045
FF75
000F
FF93
004E
0021
FFDF
FFA2
0045
008A
003A
005E
FFBA
012F
FFA4
0043
FFA2
00B8
003B
008A
0011
FFC0
FF15
FF83
FDF6
004C
FFEF
0074
FFDC
00D2
FEDE
0074
0037
FFA7
FF0B
FF8D
FF9B
FFC6
0023
FFF1
0017
FFCF
FFB6
FFD8
FF91
FFB1
015C
FFDD
FFC3
FFDC
FFA0
00E4
003F
FFE5
FF8B
004C
FF99
0049
004E
FFBB
0019
012F
002C
FFE7
004E
FDFD
003C
00BA
002A
FC76
0054
0059
005B
FEEB
0044
FFBE
FF79
0248
0067
FEE4
000E
FF58
FF2E
0048
0013
FFA0
FEC6
FFE5
FFFD
005D
00AA
018A
007C
FF96
FFCC
0010
FFCA
FB61
FCCB
0093
01B0
FFAC
FF69
01F6
FEBF
FFDE
FFA7
FFB2
FF40
0038
0042
008A
0064
FE4F
0040
FF69
FFBF
006B
003D
0019
022D
FF60
0029
FF9B
FF28
FEF8
FF77
0004
FF81
0008
FF93
003D
FFA2
0014
0032
FFAB
FE94
FFAF
00E9
004F
FFB6
0047
FFB0
000C
FF3B
FF08
FFFB
004A
007C
FF8B
00CE
FFA2
FFD6
008A
0108
FFCC
015F
00C0
FFBA
0042
FFDE
0011
0087
001D
0003
FFFA
FFB8
FFE2
FFB5
FFFF
0031
FFBA
FF69
FFA5
FF9D
FF9E
FFAC
FF8F
004C
005B
FFDF
FFA9
FFBE
FFF2
FFBD
0005
FFCA
0017
FFAE
FFBD
FF97
FFB8
0024
FFAE
0029
00E6
0045
015A
FF7E
003A
00F4
020E
FF64
FFF6
0100
FFF4
FF9F
FF82
0021
FFA9
FFF5
FFE4
FFA0
0042
FF95
FFA5
FFA8
0052
0349
005D
0041
FFAF
FF9B
FF46
FFC0
FDD1
0031
FF95
FBF2
FF25
006A
FFDC
FFE7
FF5B
FFA9
FF9B
00AB
FFC2
FFA6
0047
0000
FFC1
0006
FFD1
FFD4
FFC3
FFAB
004F
FDF3
0040
006B
0027
005F
0047
003A
FF8B
FFF7
0047
005F
0006
FF6C
0157
00A6
0061
FF88
0026
FE58
FFB2
FFA4
FFC4
004E
FE97
FFC0
0086
FFA9
FF7D
FF6C
FFA7
FF82
FFBE
FFAF
FFBD
FFE2
0017
0040
003B
FFC7
0030
FFF4
FF81
FFAB
FF3E
FF9E
FF78
FFFE
008B
0027
002D
FF99
001F
002D
0013
0042
FFD3
0185
FF93
FFB3
FFF9
0001
FEE5
FF9B
FE2F
FFCE
FFF0
002B
FFA8
00D1
0039
FFDF
0095
0041
0051
FF98
0044
FF74
FF6D
0012
00F4
0066
0063
0069
0031
0024
FFA8
FD0D
0011
FFA5
0034
003A
FFA4
003E
0030
0028
001C
004F
005A
FFA5
0060
FFBB
005C
FF9D
FF8C
FFA3
FF9E
FFEC
FF94
FF9D
0036
FF7A
020D
FEE1
FFD7
000F
008B
004F
0083
003B
0010
0015
FF91
0035
003E
FFF0
FFB8
0023
FFC0
0000
FFB8
000D
0058
FFFC
004B
FF9D
0035
FFA8
005A
FFC1
0030
FFAD
FF90
0035
FFF3
FFAB
0026
007B
FF96
FFAF
FFAE
FFD2
005B
004A
FEC4
0040
FFD3
005D
0024
FFC2
FFF1
FFAB
0063
FF3A
FFA6
FF60
FFE9
FFB6
0034
FFAF
004B
FFFE
0023
008A
FF73
FFD7
FFE2
FFFB
FFB6
0042
FFA8
009C
FFC9
FFAF
0016
004B
00DD
004C
0051
0043
FFA5
FE01
FF89
FFCB
FF78
FF8C
FD83
FF83
FF9B
0101
FF73
0074
FFF1
FFE8
FFA3
FFB8
FE43
0029
FFEA
0031
FFF7
FFF9
FFCC
004D
FF98
FFED
003E
FF9D
FF78
FFBC
0065
00DA
0105
FFB9
004B
FFE9
FFDB
00F5
008B
0019
004A
FFD6
0056
FFDD
0061
FF8F
FF3C
FFAD
FF10
FF3D
005A
FF98
0072
FFA6
00B4
FF7F
FFB5
0041
002B
FFCE
FFA9
0077
FF9D
001C
FE96
0002
FFFE
FFB8
002B
FE48
0061
FFCD
0166
0015
006A
0050
FFA0
FFD1
FFBE
0126
0040
0041
FFFA
FFE3
FFD5
FFE6
FFDD
0046
FF97
00C4
00E2
FF98
008E
FF62
FF99
00E5
FEF4
00C8
005B
FFA6
FFC7
FFA4
001B
001C
FFB4
005F
0006
FFD7
0083
FFD6
FEE2
0024
FE54
FFA4
FFC0
FFEE
FFFE
FFEE
0022
FFB4
0032
FFA9
FFE0
FFC9
FFBB
0053
0056
0040
FD7E
0038
006C
FF84
00A9
00E9
FF6A
00E1
0109
FE7C
0006
FFBB
002B
0015
009B
004C
0021
000B
002D
002D
FFE5
0042
0024
00BB
FF9D
FF71
FFC2
FF68
FF91
FFFD
FFCB
FFBE
FED8
FFA7
FFAD
FF77
FFB4
FF80
FF3D
FF32
0050
0041
0081
015D
FFC5
003B
FF76
FFAB
FFAA
FE97
FF53
FFA7
FF8F
FF57
0041
0029
FFC8
008C
030D
0004
FFC1
0083
FF9C
FFDB
FF3E
FF89
FF83
FF9C
0038
0071
002B
FEB7
FFED
FFA7
FFA5
FF28
FFA7
FFA9
0022
FFA7
FFF6
FFA5
FEC2
FFAC
0042
FFEA
037E
004C
0043
FF73
0019
FF8C
FF69
FDB6
FFA8
FF80
FFC4
0024
FED2
FF78
00F8
0137
FFFF
FEBF
FFB5
001B
FFDD
FF78
FF82
FF33
0009
FF1D
00D6
0058
FFED
FFC6
FFA8
FF68
FFB9
FFC2
FFAB
FFAC
FFA7
FFB1
FFAA
FF86
FFAE
007C
FFF4
00D5
001A
0021
0077
0057
005B
FFD0
FDD0
FF14
001F
014A
FF88
FF16
FFCC
0047
FF44
00B0
0012
0052
FFCC
000F
FFBA
FF99
005E
FFAE
FFD3
FF97
FFC6
0009
0006
FFB5
FFDF
0000
0044
FFD1
002B
FFA7
FF82
0007
FFF4
FF43
FF76
0060
FEC6
005B
0078
FFE4
0058
FF0C
0021
FFBB
002A
FFEF
FFDE
0028
FFD2
0036
FFAE
FFC1
FFC3
FFB7
004A
FFC2
FFD9
FFAA
FF42
0061
0001
FFDF
00B6
00A2
FFBF
FFFE
00EF
FF96
0019
0014
FF8A
0049
FFDF
0275
0040
FFD3
FFA6
FE04
011F
0501
FF9D
0066
FFA5
FF91
FE81
018B
0052
FF95
0002
0045
00AB
0078
0066
FEAA
FFB4
FFAF
FFA0
FFDD
FFB1
FF8C
FF90
FFF3
0040
FF74
FFB7
FFAA
003C
FFBC
FF97
FFD0
FF81
FF7D
FFEF
FFAF
0072
FFC7
000E
0004
FFC5
FFC6
FFEA
FF8B
0050
FFFD
004D
FFE8
0012
FF9B
FF8F
0279
0065
00AE
FFBA
01C2
0162
0055
FEFA
002C
0048
FED9
FFE1
FF27
FF85
0050
0063
FFC8
0061
004C
FF77
0021
FF53
FF8B
FEBE
FFDF
FE9F
FFEF
FF98
FF90
FFA7
FFBE
FF68
FFB4
00F4
0047
024D
FC1E
007B
0107
FF1C
FFA4
0048
FB59
00AE
FFBA
04B1
FD5C
0114
0004
FFBC
002C
FF5D
FFA8
FD82
0139
FEEB
0031
FFD5
0016
0156
FF92
0005
004F
FF83
FE5F
FFA1
FFB1
FFE4
FFB5
FFC1
FFA1
FD2D
FFBE
FF90
FF7F
FFBA
FFB8
005F
00BE
008E
005D
FFC3
FF8B
0073
005E
FFB0
F9D0
0029
023D
FF95
00AB
FF93
029E
006B
0009
0042
001D
FF5C
FFAA
FFD9
FF72
FF32
FEB3
0009
01F1
FFAD
FF78
FEE7
002C
FFC2
FFA7
FFB3
FFA7
FF97
FFC7
FFBC
FFAA
003C
0028
FF72
007B
FFF5
0087
FF95
0034
FFBD
0001
FFD6
00C2
FEFC
0018
001B
01A5
007A
002D
0062
0064
FFC5
FFC3
FFC4
FFBC
0048
FFDD
0009
006C
FFCF
FFD9
FFA7
FF98
FE6F
FFB2
001C
FFA8
FF5E
FFD9
FFB6
FFD9
00B9
FFD7
FF9F
0037
FFDE
FF5E
0019
0044
FEAD
0057
FFEC
FF9F
001B
FFA0
0042
FE3B
001C
0081
0002
FFCA
FFCB
FFF5
FF5E
FF87
FFBD
0013
FFAE
00A8
005A
FF24
FFC3
000B
FFD4
0028
0053
0033
FFF6
0039
00C6
0002
0058
0056
FFBE
0095
FFD0
00DF
004C
FF3F
01ED
00D7
FE7C
005F
0042
FF89
FFB1
029A
0054
003C
FE81
FFD4
0086
FFA8
FFBF
003E
FFB7
FF9B
003A
FFA7
FF9E
0037
004D
FFD9
FF6B
FF73
001C
FFBE
FF14
FFBA
FF33
FFA6
FF99
FEC0
FFA6
FF3F
FF9B
FFA8
FF8C
FFE5
0047
FFA8
FFD1
0048
023F
FF89
FCCA
005C
FF26
FFA6
FD29
FD38
0339
0000
0053
03AF
0046
00B0
FFDE
FE35
FFCB
0129
0035
FFBA
003F
005F
FE4B
FFC2
FF12
FFBE
0058
00AB
00E1
0015
FED0
FFAF
FFD5
FFBF
FEFD
FFAD
FFE1
004A
FFB1
FFA8
FF85
FFA5
FF9B
001F
FD2D
F7D2
FC78
04FE
0033
FBDA
F943
0030
052D
FFA3
09A6
FF5A
0144
FEA3
FFBB
0012
F98F
000D
0048
FEDA
FEF5
FFB2
FEDA
FFFC
07D6
FCBF
FFA7
00CB
FF48
FF9D
003E
FFB4
004E
FFE6
0035
FFE8
FF22
FFE6
FF85
FF86
0004
0098
FFA7
FDAD
FAF3
FE2A
0260
FFC8
0337
FE6E
FFCD
FE0E
FFE8
068A
00AA
FFF6
FE8E
007C
0043
FF05
FFDA
0046
01A9
FF88
00BA
FF67
FF1D
FEA9
FF58
FF94
023A
FFB6
FF50
0018
FFB8
FFA8
FFCE
006B
FFBC
FEB0
FFA9
FF93
FF80
011A
0089
0055
0043
FFAF
FF85
0010
FF68
003A
FFD5
0130
008D
0041
FEE0
002A
FFAC
0094
FFD9
0057
FF7D
FEEB
FFA1
0061
005B
FF86
0069
0111
FF7E
0019
FFA9
0034
FD8F
0007
0039
FFA7
FF84
0056
FFA8
FFA7
FFA0
FFDF
FFAC
FFFF
FFA6
FD36
0039
FFDB
FF9B
0034
FF99
003B
0007
FEC8
0057
FFEC
FF95
FFB7
0048
FFA8
FF87
FF94
FF78
003A
004B
005F
001F
0044
FFE7
FFB2
0066
0095
0022
FF1E
0008
011E
0034
FFE9
00EC
0057
0048
0017
FFC3
0063
FFF3
00EC
0011
FFE5
FFB3
0015
00A8
FEFE
00A0
FFCD
FFA9
0036
FF13
0153
FE36
FFFE
FFB0
FF76
FFE2
000F
003B
FF70
003F
FF9D
0038
0083
FFF8
0048
007A
0128
0036
0042
00F5
FFC2
004C
0083
FFF7
FFAA
FFBD
FFB6
FFAB
FF8A
FF61
FFA7
004B
FFC1
FFB7
0144
030A
FFF0
FFFB
FBE6
FFA4
FFF1
FF42
003C
01F1
FFA4
0055
FF91
0032
FFB4
FE50
0079
0043
FF91
FFF6
0077
003D
FFA1
FFAE
0064
FF9B
FFCA
FFA1
0038
FF97
FFD4
0045
FFF4
FFA1
FFA7
FF3B
FFA8
FF98
FD5A
FFA7
FFA8
FF86
FF9E
0043
FFF4
034B
FFBB
F70A
0014
002A
00A5
01F4
FFCB
00FD
0217
0414
FF3B
0039
FC49
FEEC
0094
FAF8
FC98
02E5
0048
FF8C
FF24
FD44
FC3F
006C
FDB1
FE27
FF9E
FF5E
048A
FF8F
FFA6
FF74
FFD0
FF62
FFA7
005E
FFDC
FFA7
FF9F
FFB7
007E
FF23
FFC1
FFA7
00C8
003D
FFAD
FF59
00EB
FEFC
005D
FF90
01CB
00A1
FFEF
FDBF
FF56
0105
FFD6
0038
0009
0036
0218
FFAD
FF7A
010F
FCF5
0019
FFCF
004A
0025
00F6
FF0C
FFF4
FFA9
FFBA
FFA7
FFA7
007D
FFA7
FFC7
FF9F
FF9F
FF9E
FFA9
0061
FFA9
004A
FFA7
0064
00B2
FFDC
0065
0008
0017
FF91
FFC4
0047
004D
FF93
0040
FFC7
FFFD
000F
FF0D
FFBA
0166
006B
0087
FFA9
0031
002E
007A
FEB9
0067
005B
FF92
FF86
FFDC
FFAB
FF87
FFC1
FFA7
FF9D
FF8E
002A
FC72
FF85
005B
0039
0020
FC0B
FFF5
FF97
FEE7
FEF1
FFB3
FE97
FFDD
0088
FFB0
FFF8
FF9F
FD86
006B
0044
FFFB
FFA5
0031
0084
0057
01F1
00C8
000E
008C
FFC8
00FA
0189
0081
0063
008F
00D8
0053
FFA7
007F
0009
006E
0007
FFD7
0046
0053
FF2F
0023
FFF1
FFBD
0054
FFB5
FF45
003F
FE3A
FFD4
FFE0
004D
FF4D
FED1
0046
FF1D
003F
000A
FFCA
FFFC
FF84
00F5
002E
006D
00B9
0100
00A5
011F
0049
00D3
0030
FFC3
FFC9
0030
FFB7
FFA7
0121
FFA7
000A
FF3F
FFBA
0049
005A
FFF9
0104
0012
0053
0111
0020
006F
0034
FF7A
007D
FFA9
0010
0037
FEDD
FFA2
0050
FDE1
FEC7
002B
004E
01EA
FF62
0049
FFAD
FFE4
004B
FFEF
FEDE
0044
FF5D
0049
FF3B
FFA3
FFE8
FFBD
FF94
0025
FFA7
FF34
FFBA
FFFF
FFA2
FFAC
0014
FFA9
00E5
0005
004F
00E8
0140
FFA4
007D
01E7
FF89
FF98
00AC
FF7A
FE20
0035
FFB8
0076
0027
FECE
01C7
FF2D
FF19
FF9B
0002
FF8B
FD9D
FFEF
005B
0052
FFB5
FFAE
FFA7
FFBF
FFB7
FF9F
FFCE
FFA7
FFD1
FFAD
FFC6
FFC7
0038
00D7
001E
005B
FFAA
FFF3
FFD6
0091
FFB4
016C
FF17
FED8
FF3B
000A
FFC9
FE39
0003
FE28
FFF8
01A4
FFFB
00E8
FDDE
0038
020C
FFD3
FFD8
FFCE
0024
FFD2
FFB0
FF1A
FF81
FF9A
FE7D
FFA7
FF83
002D
FFB3
FFCE
FFA5
FF3A
FFA6
0001
FF85
FFFA
00D7
FF9B
FFAA
FFA0
FF98
FF79
00C5
FFC7
FF9B
FFA6
FF8F
0085
FF43
FF83
0036
FF59
0040
FF9F
003E
010C
0028
0073
003A
0063
00E2
0040
FF9D
01F7
FF50
FFC8
FF44
00EB
FFBC
FF84
003A
FF9A
FFA7
FFC7
FFA5
FFAF
FFAA
FF98
FFBA
001B
0038
FFFC
0045
000C
0069
00B1
FF8A
FFB6
0080
0051
0063
0038
0045
0043
FF4B
FFEB
FEA6
0032
FFA4
FFB2
FFF6
FFCC
0086
FFD3
00F3
FFC1
004C
FFD9
FFBE
0006
FF85
0047
005E
FFA7
001F
FF5C
FFEC
FFEF
0053
0013
FFA5
0015
004A
FF99
0007
FFC9
0046
004A
FFAB
FFC5
FEFD
015A
FF9A
FFAA
0034
002E
0050
FFFC
000D
FF0B
002C
FFA2
FF93
FFB6
003F
FF9B
FFB5
FF20
FFE3
007B
0040
FFF9
FFC0
0037
0045
0001
FFB3
002E
0066
0049
FFDB
0046
002E
0056
001A
0049
0012
0007
00B1
0037
0061
0044
0056
FF26
003E
FFBF
00B9
FFBA
0005
FFF1
FF46
FF9A
FFB0
002F
FFAA
FF06
FFDB
FF50
FFDA
FF22
FEBC
FECD
FFB8
0018
FF8F
003C
0033
0060
FFAE
0061
0002
FF38
0048
004A
0050
0003
0040
FFB1
0047
0046
004B
00D4
FFEF
FFAC
0042
0053
001A
0006
003D
01A3
FFFE
FFAE
0005
FD3C
0047
00FC
FEBE
0076
FF4F
0034
FFFF
0044
FF7B
006C
FFB3
FF94
008A
FFBA
FFA7
0088
FF7D
FFA9
FFEE
FFAD
FD38
006B
FF67
FFC3
FFAA
0048
FFA2
0054
003D
FF99
00D0
004F
0026
FFDD
FFA6
0003
00D3
0031
FF8D
FFEB
0020
0023
FFC6
0059
FFAC
0000
004B
FFAC
0056
005C
FFC0
FFD0
FFDA
0046
001E
0012
0003
FF95
FF40
FF92
0066
0034
FFB6
0010
FF83
FF30
003F
FFD2
004D
0013
003A
FFAE
FEA3
FFAD
FF94
005F
FF84
0033
007C
0202
FFFF
FFA6
0024
0047
FFA6
004D
0024
0006
FF92
0064
FF84
0057
FFDE
FFC2
FFA5
FFB1
FFA8
FFC2
FF5C
FFF0
FFA0
FFA4
FFB3
FFBC
0058
FF93
FFAA
0041
FF9D
FF72
FFE2
0054
FFE3
001F
FFA0
FFB1
FFAE
0025
FFD8
FFAD
FFF1
0135
FE04
0054
0017
FFE6
FFCD
0036
0075
FFA3
0055
005E
FF73
FF75
0061
0050
0061
0026
00C1
FFE0
FFAA
FFE9
0024
FF97
FF84
FF8D
FFD0
FF4B
0014
FF92
0023
FF96
FFC3
005F
FF9D
00F9
FFD8
0060
0073
FDE9
FFF6
FF74
0037
FFB1
005E
00C2
0115
FFA6
FF97
0008
FF09
FF8D
FFAC
FFF6
FFA0
FF89
FF91
FFB7
00A1
000C
FFB0
0053
FF65
004A
FFF6
FF46
0048
0028
FF58
FF97
00FC
004F
004A
004B
0030
FFF9
0041
FF9A
010A
009F
01A7
0046
0037
01C3
FFF8
00CC
FF4F
FF64
018A
0162
0001
FFB4
FDC2
FC72
FF81
FE6B
FBFF
FFA3
FCE3
FF7E
FD44
00E2
FED1
FFE1
0044
FE6F
FFB5
FFF8
0042
0044
FF96
FFD8
FDB7
01ED
FE57
0062
000C
0010
0019
0096
00CD
000A
0162
0230
FFD8
0048
008A
FFB7
FF98
FFA2
0053
FFE8
FFEB
0085
FF7A
FC47
FC97
0012
FF11
FF7D
FFA2
FE7C
FFC5
FF8F
002D
FFA7
FFB8
FFAC
FE86
FF64
FF6C
000E
01D9
01AA
0034
FEFE
FE54
FF6D
FC19
FFBC
FF90
FFBA
0046
FF80
0045
0064
01B0
FE69
0012
0041
FF34
FFE4
FF8A
006C
00E5
0179
0122
FFCE
FD98
FF96
FFB6
000D
0048
FF98
0042
FF8B
0004
003A
002E
FFAA
FFEE
FF61
FF52
FF91
00B9
004E
002D
FD53
0017
FFA7
00AC
FF98
FFA7
FEFF
008B
0069
FFAA
00A4
FFCF
0067
FFDC
0032
0052
004B
FFCC
FFAB
0055
FF9E
00EA
FFB5
FEBB
0027
0086
FFA6
0018
FD54
FF94
0035
FFB1
0037
FF9B
FFDE
FFA8
FFB6
FCA5
0026
FFE9
FFAC
FFA6
FF2E
00BA
FF79
0122
FFCE
FFAA
FFAE
0097
00F6
FF70
004D
004E
0042
FEA0
FFE9
00A1
FBD2
00BA
FF24
FFE2
002A
FF4B
FFC7
0057
FE73
FF64
0033
0062
FFFE
0030
0086
000E
FFFF
00D3
0058
0024
00E4
000C
0016
FFDB
FF43
001E
FFE3
FFCD
004E
0067
0006
FFE4
FF9C
FFCB
FFAC
0240
02A7
FE36
F70D
0475
F709
FDC5
033A
0327
FCFA
FC63
FF58
FFD1
001E
FFC2
FF4A
FC19
0131
FF93
0053
000F
00FA
005C
0000
FF2E
003C
0169
FFDF
00C1
FFBA
004C
000B
FF10
0066
FDFD
FFF9
FFA2
02BE
FD76
01C8
00D5
FFC2
FF0B
063A
00EA
004D
F706
089E
F9FA
FEB9
FF11
00A3
FFAC
FE0C
FBAE
FC97
FFAB
00B2
FDFB
FEA7
010A
0310
FF59
FFB0
FB8F
FF9D
FE5A
FEA0
FA2A
00B2
FC9F
FEB1
0022
FF36
FFE4
FA63
039D
FF72
FBD1
FCD0
02F7
0316
01AB
000F
FD3B
F8D7
0206
F9BA
FDC0
FE5D
0789
0038
FEC4
FA68
0762
0026
FFA0
FAFB
FBF1
00E5
0254
FF7D
FF9C
0109
FE02
002C
0065
FF13
0037
FF30
00C0
0026
FF68
FE7E
FE51
FFE3
01BA
FF52
FFB0
01DA
03F7
FCD0
0042
FFA8
023A
00BD
00E0
FE7F
F84F
006B
FF09
FD76
FF3D
0168
FF9C
02E4
FAD2
00A2
0138
FFBD
FF7C
010A
FE54
00E1
0193
FE6A
0132
0042
FFA8
FFA2
0048
FF84
00B7
FF90
FEF2
0040
FFB2
0000
00B5
FFBD
FF6A
0396
FF08
01A5
0016
02CD
FF24
0077
FEB8
003A
FEE4
FF71
0146
000E
002D
FFA9
001D
FF60
005F
FEC7
FFC5
FFC9
FF25
FFBA
00EF
FFC9
0078
0058
FFC6
009E
0046
FFAC
FFA7
FFF0
0049
FFA6
005E
FF5B
FFD9
0065
007F
01A7
FD5E
FFF2
0150
FD98
FF1B
FEED
0048
FFF1
0141
FEB5
002F
FFD8
0006
FEC6
FFE8
FF86
0003
FF17
FF8A
FEC9
FF1A
FF86
0053
0011
004B
0160
0121
FF81
FFEE
FE40
0019
003E
004B
002D
006D
0014
FFA5
001C
0054
0034
003E
FFC0
FFA1
003B
000C
FF2A
FFD3
01F0
0069
006D
0024
FFC6
FFB9
FF3E
FFED
FFC7
FA24
F70A
0CCF
FE69
FD7B
FC8F
FDA6
FD7D
FDF0
0248
FCBC
FF57
FFA1
00C8
FFA6
FEA2
00D7
0045
FFE4
001E
00BE
FF9F
FF90
03BC
FF8D
01B2
0009
FF94
0051
FCD7
00C8
FF85
FD79
FF8E
FFE0
0284
002B
0297
00BC
FF80
0045
0245
FC87
FC96
FB2C
0ADF
0172
F84D
FFAD
FEFD
FFA6
F70B
031A
0442
FC8E
F861
FC38
FB70
F8B7
020D
0060
FC7A
056D
FE2E
0043
FB1C
07C6
030B
0501
FCC0
FFBA
FAE6
F913
01BE
0158
FAC6
FA8E
F8CB
FE7B
FBC9
03B1
FB78
FFF9
01D8
01E2
01D4
FF55
FD4D
0314
FFB2
F93E
FEF5
FF32
FEFC
FFDB
0544
0504
0462
FADE
F778
FD5D
F764
0527
0076
FE69
031F
01DB
FDE7
F9E6
0361
FF57
FC8F
FFA3
FF1D
FFB4
F8FD
FD18
FF9F
FEEB
FA79
F972
FCC3
037E
020B
FF2C
FF28
037F
048B
0254
FCE4
FF9A
F767
F8C8
F77A
F86F
FE12
004D
FE3F
0A14
023E
0198
012C
FD59
FF76
FAB9
029D
00BD
006C
FF7B
0442
005D
FF76
FF77
0017
01BE
FF86
00F0
0297
FBE6
0134
FF82
FECE
FE29
00F8
FFBE
037F
FFDB
FDBC
FF94
002C
0569
0077
FFA4
FE67
FF78
FEE3
FC70
FF6C
0068
FF8E
FF93
FFA1
FD08
00F0
0252
003B
FDDA
0038
FFCE
0170
00C2
0003
0049
0056
004E
005E
003C
0027
0005
002E
004F
0217
00FF
012E
FECD
0026
FFF1
0010
0158
FFC7
FF2F
FFC1
FFE0
FFEB
FEC4
FED3
FFAB
009A
001D
FFC9
FFAE
0055
FD35
003E
FFAA
0027
0061
016E
0039
FFC8
0049
FEBB
FF99
0062
FFD8
FFD2
FFB6
005E
005F
0051
FFAF
FF80
0030
0005
FDC0
005C
FDD9
0031
0069
0012
001E
002A
001C
005B
0041
000E
FFA1
019A
0013
FFAD
0052
002B
FF9E
FFBC
001C
FEEF
010F
0035
0022
00B6
0091
FFB7
FF53
0058
0006
0025
0076
FF64
FFD7
FE21
00BD
FB6D
FF90
FD72
FF9F
FE03
015C
00AB
FFD1
FFA4
00D9
005F
0045
01A8
016E
FE38
00CB
FF55
FFA9
0055
FF97
060F
FC67
F879
00B5
F709
FF51
007A
0CAD
0424
FFA3
0176
04A3
FCF1
FEB5
FEB0
FD95
0026
FE85
FC1F
FF04
FCF1
0048
FD75
FFDA
F85A
FE3D
FB63
F9F2
0754
FE22
FF9B
0218
01D1
FC34
FFE2
0052
FE13
FD80
005E
FD1B
0229
FED6
01B0
FFFB
04D5
0307
02AA
F721
0197
0207
058C
FD27
F711
FF33
08BF
FD8E
F815
FE64
F70B
FFA1
FE6E
F762
0045
F9E8
003B
003D
004F
F751
F810
F725
003D
FB13
FCC7
FFB9
078B
FC95
0035
FDB1
FAEA
FD07
FCC0
F9C9
FFAF
0110
FF1A
01BA
FF7F
0190
FC14
01CA
00AA
FE37
FF97
0642
005A
FF5E
0254
0304
FF90
FFAB
FDD9
F7F6
FFF8
FF7C
FFBE
FFE8
FFA5
FF63
FD38
FFC1
FFB5
FDDF
FEDB
0035
FBE7
FFFE
FEB6
0046
FD69
004E
0053
02F2
FEA6
001C
FA2B
FFF1
00A3
FEE9
0390
FF43
FEE5
001D
FFB2
009B
FEAD
0034
FF7E
FFAB
FFB9
FFB4
FFB9
003D
FFE0
0054
003C
FFCF
FFA5
018D
002A
FFF9
0044
FFCC
0039
FE84
0088
FFA8
016A
FF8C
03BD
004C
005E
FED1
0040
FFA3
FFBD
0015
0051
FFB2
FF9B
FF79
FFB6
0066
002E
0067
FFA4
0038
FF92
FFE0
0025
021C
FFB7
FF99
0017
FF9F
FF7C
004E
FFE8
002F
FEAC
FF44
FFCB
FCD6
FFAD
FFA8
FFBF
0029
0003
0042
FF5B
01AC
FFBD
FBEC
0041
FFA2
0058
004E
FFB6
FFC6
FFCC
0080
0004
FFC2
FFBC
004B
FFD6
FFDF
0039
FF97
FFFE
0022
FFC4
000D
0040
004A
FFF7
001F
004E
0045
FF07
FF4C
FFC6
FFAD
FFB2
00EC
FE4A
FFB0
FFE2
004C
FF93
002F
0053
FFF3
FFCD
FF06
FFBD
0062
FED9
0016
0051
003A
0021
0082
0037
FFAE
FFB9
0000
0033
0038
000B
003F
004F
FFAD
00A2
009D
0093
FFA9
0009
FFB5
0018
FFBD
FFE6
FFA5
0027
FF9F
0038
FF9F
FF9A
FC9F
FF65
015B
FF91
FE10
0016
FFCD
FFA9
001C
000B
0195
FF70
004D
FFAC
FF49
0067
FFB6
FFB2
001F
009C
00E4
FF25
000F
FFAC
000C
FE3F
0021
0058
FFA6
005F
0034
002B
FF52
FDC7
FFF5
0028
FE9A
FF95
012B
006A
0023
FFBB
01F3
FC2A
FFDC
0066
000B
0088
FFED
FFDC
FF7A
005B
0118
0029
FFD8
01BA
0031
00E5
00DA
FEC6
FFA4
FFAA
FFEF
0175
FF87
FFD4
FEB1
FF76
0049
003D
0033
FFAC
FFB4
0051
FF8C
FF91
FF26
FF6E
FF58
FF91
FFC2
FFBD
006A
FF7D
FF9E
004C
FDC4
0049
FDB0
FF99
005D
0045
012B
FF01
0040
0126
01C3
FEB8
FFB5
0053
0040
0006
0075
003A
FF20
FFA1
014F
FF8F
0050
000D
006B
0031
FFA4
0068
FED4
0119
0018
0054
FFB0
004F
0044
0040
FFA3
FFE4
FF9C
FF6C
FFCB
FF9B
FF76
0059
004A
0135
0233
FFBA
FFA6
FFA4
FFF7
01D8
0036
FF9A
0004
FBDB
FE56
FF44
FFA0
FF6F
0018
FF8A
FFC0
FFDA
FEBF
FFBA
00EC
FADF
004B
0034
0015
0010
0042
FF88
003B
FFEF
FF8E
FFBB
0043
FFFA
FFC5
0008
0072
FE41
0005
003F
0018
0048
FFD1
FFD2
FFE9
0031
0049
FFE9
FFD7
FF49
FF91
0034
0029
FFC3
0042
FFC3
00CF
FFA7
0021
0098
0011
FF18
0026
FF7E
00BF
FFB8
FFA0
000D
0049
0003
FFDE
FFA1
003D
FFB3
FF9D
0110
FF9B
FF0B
FFC0
0137
FFA0
00F2
0000
FFB2
001F
0002
FF9F
0037
FFEA
FF8A
FFAC
0049
001F
FF96
FB9E
FFD2
FFBE
0023
002A
FFD7
FF82
FFD2
0067
FF90
FFE0
005D
FFA7
00F4
0046
FFC6
FFDA
FF9B
FFA7
FF75
FF82
003C
FFA7
FFB0
0046
0027
FFA7
0063
FFD1
0014
0021
005C
FFDB
0060
0055
FF70
003A
FFA0
FFAE
0084
0055
0088
004F
00BD
FFB2
FFA2
FFB3
FFC2
FF63
FFA0
FF62
0049
FF82
FFEF
00E6
0053
0183
FFA6
0018
FF5A
FFAA
FFAA
FFB1
004D
FFA7
0114
FFAC
0048
FF99
009F
0047
008F
FF6F
0090
0061
021F
00D5
0091
0008
0024
000E
0066
0016
FFBC
FEC4
006D
FF90
FF9C
FF87
FE4A
0016
FED4
006F
0028
0036
FF4A
0013
FF7B
004F
002D
FFF9
0044
FFB0
0049
FFB3
FF0F
FFA5
FFCF
0009
0024
FF6F
FF90
0031
0048
FFB2
001E
0040
0085
FFA7
FF77
FF78
FFBB
0081
FF95
FFCA
FF9F
00AB
FF40
0001
0083
FFCF
FF91
0021
004A
0153
FFB9
FF9D
FFB1
FFA6
010C
FF9F
0093
0074
FFFB
0049
005F
FFD7
FFA0
0050
FFF3
FFA0
FF9F
0021
FFA6
007D
FFB7
FFF9
FFA4
FDD7
0035
0056
FFFD
FFB9
FED6
0072
0051
003B
0019
FFC1
FFDF
FF97
008A
FF33
FFD2
FF8E
FFF4
000B
0015
0002
FF94
0084
FFC8
FF61
FFC3
FFA8
002D
008D
0057
0042
0044
FF9F
FFC9
FFAC
FFA7
FFD0
FF8C
FFF3
FF9B
FFA4
008F
0034
FFDF
005C
0046
FFD3
FF75
FFDC
FF62
FF8E
FFB6
FFD8
FF4E
004A
FFA2
FF8D
FFE2
FF8E
FFE8
005E
0016
FF7C
FFC8
FFEC
FFBD
0048
FFEF
FFB2
FFB7
FF9F
003E
0049
003E
0146
FFE9
FFE1
004A
0045
004E
0039
FFBD
0032
FD2D
0101
0032
002C
000D
0016
FF84
FFD5
FFC5
FF9D
FFA4
FFA0
FF6F
FFAC
FFC7
FF7A
0010
FC1C
FFBC
003F
FFE1
004B
FFE4
0074
FF59
0027
FFA2
0074
FF95
003F
FEC9
006D
FFF2
FFF4
003E
0041
FCAB
FFF3
00D1
FFB7
FFB8
0044
FFF3
FAC9
002C
005E
FFC1
FF94
FFF0
0067
00DE
0022
00D7
00B2
004F
FFCA
017C
FF66
003A
0038
FFDB
005E
FFBD
FF2F
0055
0013
0024
FF9E
FE98
FE7B
FFD0
FCEF
FF96
FED7
02D1
FFCB
00A6
FE77
0101
017F
FBCE
FFFA
0027
FC4C
0074
FFCE
FDE0
FFA8
FFF6
FF59
004C
00F0
FFBA
FFC1
FF80
FF9E
FF9C
FFE4
0165
FEBD
FEFF
FF9E
FFE6
01FC
0034
009D
FF9C
FFBC
FF85
FFFE
004E
FF19
0047
004A
FFD6
FF5E
FF9C
0036
000D
FF90
FFC7
000C
036B
FFC3
0040
0021
FF4A
FFD1
FF9F
FF81
0077
FF82
FFB9
0038
FFA4
FFC8
0041
002E
FEE7
FFD0
FF99
FFD6
FFCD
0028
FFF3
0057
FF90
FFF6
01A8
FDE1
FF5A
0059
FFD8
0006
FF58
FF6A
01AB
0066
004E
FB6A
0074
0005
0023
001A
0011
FFBA
FFB0
FEE7
0018
0012
FFD5
0046
0473
FFE8
FF8C
FF15
002F
FFB0
FFE0
FF74
0024
0015
008D
FFAF
FFFB
FF96
0033
0048
001A
FF9B
0053
FFAE
FFB7
FF2F
00A8
FF88
FF9A
0006
0067
004C
FFE2
FF0E
FFFE
FFA1
00F1
FF9A
0030
003F
FF77
00AD
FFB8
FFB4
001A
FFAC
0052
0061
0053
FFA1
0008
0021
FFA9
FFDD
FFB2
FF42
FF5D
0073
FFD4
FFE2
FF03
FFA2
FFCA
FF93
FEB0
0067
0024
FF9A
FFB0
FFD7
FFDC
0059
FFAF
0051
FFD5
FF6C
0054
004E
FF6A
007D
02A4
0030
003C
002A
0048
004B
009F
0026
FFAC
008A
FAB8
FFF5
013F
FFF6
003D
FFAC
0050
FFB9
FF94
FFAF
FF1E
FFA7
FD6A
0039
FFA5
FF9F
FFFA
FF4B
FFDC
FF53
FFA1
FF96
FFFD
FFE0
FFE4
FF77
FFCD
FFC0
FE7E
0052
FCFF
FBD5
FAF2
0836
FDCC
FF5A
FEFB
00E0
FC39
FCBD
032A
0051
0144
F722
FF77
FFB5
0190
FF9F
0063
FF7A
FFF0
FFD8
00A0
FFE4
00DA
0140
FF9A
00CB
0032
00B5
01A6
0137
FE8C
FFA6
0012
00CF
FE07
0005
FEE6
FE87
0204
0011
004F
0207
0161
0059
085A
F86B
0267
045D
FC73
FB11
F7B3
F751
0556
01D3
F70B
FF9C
F748
036A
FD6F
F79B
0043
0066
FCDE
FD18
FF6F
01D1
0250
0298
FE90
0439
FF9A
020F
FF22
01D3
FE0F
FFE4
FE60
00CE
FF87
FDC6
FFF8
FEBA
018F
0066
FF98
FA1C
FEAE
FB9D
FF99
FFC3
020E
0AE4
004A
01E5
0033
0033
FF93
06FD
FFCA
FC17
02D9
FF60
FDAD
FE22
FFD1
FFA6
FE41
0031
FFCA
FFCA
0020
0061
00B4
FF90
FEA3
0018
0124
FEE1
FD57
0076
FD8E
002C
FFB7
0245
FFC1
0097
020F
FD3F
FEFE
FF80
FCD9
FFB5
0051
FF26
FFA6
FFBD
013D
0015
0044
FF5A
08EE
FFB5
FFAA
FCB0
FF93
FFAB
FE55
0066
0157
FFA0
FE77
0048
0092
FFE7
FFBD
0059
006C
002D
FF82
00BA
00DD
001A
FF80
FF95
FF8F
FF7F
0193
005B
FFA7
005A
0063
0039
FFCE
FFC7
0022
0046
FF95
0180
003D
FFC1
0059
FFB7
0058
FFE6
0054
FFD7
0037
001A
FF9F
FFAA
FFA5
FF13
FF99
0012
FF9D
FFCF
FFB1
005A
FFDE
0032
FF57
0040
FF97
FF3C
FEB3
FF95
0005
0092
FFFE
FFCF
005F
FF8D
FFFA
004E
FFB1
FCA6
01BC
FAD1
01DD
FF99
012D
FFE1
0041
00FA
FFDC
FFA5
FFA9
FF9E
FFB6
0028
FFA0
006F
001D
0056
0046
006C
0068
0096
FFD0
007D
0036
0041
002D
003C
014E
FF0B
FF56
FD86
0013
FF19
FFAF
005D
FF48
002C
FFB4
FFCE
0764
0233
F631
007C
066F
FCD4
003E
FEA1
F73E
FA09
06E7
02D1
0020
F70E
FE26
F70F
04C8
002F
0232
FCAC
00F2
FF73
FF74
FF88
0025
0046
FDFD
00C5
0055
003E
006B
FE65
042F
004F
00D1
FFED
FCE0
0035
FDBA
FFB3
FFCB
0040
FF16
FD63
F708
05AE
12CA
F700
F662
031F
F70A
0147
003F
F896
01EA
FD75
00B4
FD17
F70D
FF9E
015E
FB10
0067
0267
00A8
FEA5
0330
FFB6
FF26
F706
011D
0788
0014
01E1
FF64
0282
FFF4
01D7
FFC7
0065
FD0E
FE1E
01FC
FE1D
02D5
F938
0078
FED6
0066
003E
FFC7
FFAB
00C6
FAE3
FDA2
035E
04F0
F8DD
FFBD
0B20
FFA9
FFD8
FCC9
005C
0223
FF80
FF47
01AE
0208
FF45
FF97
0452
00CB
F9AB
FC46
FDA0
FF02
0044
FC7A
0362
FFA5
FF75
FD61
0073
FF75
0177
FB30
FDCC
F949
004C
FFA9
005E
004B
01F1
0044
0091
00CC
009C
FDF5
FE2F
FFAA
0203
0424
01C0
FFFA
0006
0052
FC77
0017
FD3E
0070
FE3D
FF94
FFE1
FFB1
FF74
FFA9
FF92
FE4E
FF96
FF85
002E
004C
FFA2
FC89
FF86
FFAC
FFD7
FF7E
0037
0095
0026
FFE5
0026
FEDC
0058
FFA8
FFD7
FFB0
0049
0033
002E
006D
004A
FEF1
FFD8
0066
FFBD
FFA4
FFA0
0041
004B
FFA8
0099
0041
001C
001C
00A6
0004
FFB3
003D
0037
012D
0014
FF45
FF9A
FFDC
FF92
FFDB
FFA6
FF80
0010
FFC5
FFA8
FF99
04B4
0060
FCB2
FF11
0283
FCE2
0136
0059
FD9D
FF64
FF77
0053
FB63
0073
FFA0
FF7F
FF9A
FFC2
0043
FFB5
FFE9
FF9B
005B
00DE
017F
0047
0091
0042
0142
0045
0085
01A9
027C
FF9B
FF98
FE23
FFCF
FFA0
FF81
FF8F
FF5E
FFCB
0059
FEA5
0717
019B
F7AC
04DF
F728
01EE
0091
FDE9
F71D
FD95
01FE
FDF3
FAF8
009B
F94A
FC6D
FF71
FF95
FCF0
FFB7
04A6
02B9
FDA6
030C
FE85
01C5
03C0
F940
F80E
0004
0120
0258
01C1
FEB9
FC0A
FD72
FFD7
00C8
003D
FFB2
FF96
0116
FCE5
FFBE
002E
00A1
080D
0315
FF98
FDCB
F78B
FBA1
FA85
0043
FD13
0731
FFC4
FB09
FE0A
0038
006B
0566
0070
FE92
01AE
FA8A
0026
0935
01C5
F8BD
FE91
F9F6
FCCF
FC85
FA57
0042
FD6D
0031
00D9
FF94
FD8E
0114
FFB8
FFEC
F90A
0045
FFA9
004D
FD01
FDF7
FFA9
00E0
0046
0083
029C
0080
FFD7
00BD
0463
029F
0147
FF7F
FD17
003B
FEAF
FF11
FF7F
0039
00B5
FE0E
0AE3
FE81
0042
FF18
FCAA
FF0C
FAE8
FEE5
FCE8
FEF0
FB9A
FFA7
FFCD
03EB
FF86
FF26
FF7A
FF1D
0177
0078
004A
FFB4
003E
0219
FFE8
FE2D
001F
0042
FF5A
FFCC
0058
FFFD
021F
0013
0080
FF83
FDD9
FF9A
FD95
FF58
0024
FF37
FF30
FC7C
FF06
FD72
0057
FF21
FF8C
FF7F
000B
FF77
FF4B
FFAB
004A
FEAF
0047
FF26
001F
0068
FFAB
FF94
FFD5
FF9D
FFB1
FF8F
FFB2
FFB0
FFA3
FE1B
0044
FE6B
00FC
FFE1
0056
0033
FF7D
FFA3
FFE1
0023
FF6B
0041
FF99
004D
017D
FF58
0045
0186
0041
015B
006C
0050
0126
FF22
FFF1
FF6E
FFC0
FFDC
FFA2
0038
FF92
FE70
003E
FFA4
FF6C
FFBC
FF5E
FF5A
FFA8
0048
00F5
FF3B
003B
FF9B
0085
FF56
0035
FF98
FFEC
004C
FFB5
FF40
0045
FDDE
FFAB
FFA6
0079
0291
002F
0025
0053
0055
FFDF
00E0
FFB8
0031
000C
0006
FF8F
0041
FFDF
FF6F
00D0
003B
0036
00B8
000E
FCCC
004E
001F
FE32
FFDA
004B
0000
FCBF
FCCA
FFC3
FED3
0079
004B
0055
FFC0
003C
FF4C
FEC1
0237
FF93
0006
FE30
02F7
0001
0220
0129
01F2
0167
FFE0
FD95
FF6F
FFDD
FF45
01C3
FF50
FF85
FFA9
002B
FF90
FF7E
FF92
0072
FC8D
FF40
00D7
005E
0008
0164
00EE
FF72
FFC7
002A
003A
FFDC
FB93
00BE
0140
FBC5
FFC8
FEBD
FEDB
FDAE
0233
00F6
FFDC
F71A
F88A
FFFF
0DDE
FFAC
FFA0
FF96
FEF3
F9A8
FEB2
003D
FFFE
FB4E
011D
0186
FE30
FD95
003C
FE10
FFA2
FF88
00C0
0048
0048
FF93
FF6F
0027
FDB6
003C
026B
00E9
00AB
FFA8
0362
0162
FC2A
0140
FFBE
FE6D
FF68
0056
FF8F
0037
FB65
00A1
00C8
F828
008D
015F
0150
FFD2
FFE2
FF9F
FFD0
FD71
FFCC
FFB2
FDF6
FF9F
FE11
FFAE
FFC9
FFF8
0068
0028
FFB6
FFAF
0056
FFBE
002E
FFA7
FDB4
FEA5
FFA7
0044
FE30
FFAD
FF35
FF74
0047
FED9
FFB8
FFB7
00A1
FFAF
FFA3
021E
002D
FF5D
0046
0047
FFD6
022D
0059
FFB0
017E
004A
FFD3
FFC7
00F4
0021
0074
00F9
FFB5
00F5
0014
FFB2
FE80
FF98
0048
006F
0002
0046
0016
0107
0026
FFAE
0019
FFAA
FFF7
0054
0053
006E
0032
FF9C
FFC6
FFB6
0022
FF98
0020
FFD1
FF7C
FFD1
0045
0085
004B
0039
002C
FFFE
FFEB
FFDB
FFEE
FFB9
FF90
FF37
FFC0
FFFC
FFCB
005A
FFA3
0082
0005
0021
004F
0060
0005
0026
002C
0038
FFB9
0022
FFA2
FFA2
0014
FFB3
0007
0021
0038
0023
FF74
0049
002F
FF9C
003C
FFFC
0039
FF91
FF49
FFA5
FF91
000F
FFBA
FFC2
FFCB
0018
FFC7
002F
FFDF
FF95
000E
FFB5
FF8A
FF44
FF2C
004F
0012
FFAC
FFFC
002B
003B
FFF6
FFC6
FFF7
001F
FDD5
FFA0
0031
0095
0105
0070
0045
FFF9
003A
FFA6
006B
FFF6
FE96
FFAE
000F
FFC1
FFDC
FFC4
FF72
0074
FFEF
FFCB
0052
002F
FFC8
FFAE
0039
0046
FFFB
FFB3
FFBE
001C
F828
0046
0054
00A3
0043
004D
FFD5
FFA7
0053
0040
0052
FFA3
FFF4
0027
00F4
FF9F
0035
FF9F
0044
0021
FFFB
0022
FFEB
FFD4
FE1B
FFF9
000F
FFE9
FFE4
001F
FFA2
FF81
FF6A
007F
0008
0071
0020
FFDE
FFE3
0024
FEC6
FFE6
FF6A
FFB4
004F
0044
0016
0047
002E
002D
004A
004D
FFC6
0046
FFED
FF89
0026
FFA1
003C
0035
FFA2
FF9B
FFA9
FFA6
FFC8
FFEB
FFB0
FFAC
FF88
0061
FF95
FFAD
0016
003A
FF92
0033
FFE8
0032
FFDF
0026
FFA2
FFAB
000F
FF9C
0076
FFAD
FFAB
FFF9
FFC2
002E
0060
00E9
006A
0021
0052
00DA
FFBC
FFE1
FF92
006A
0045
FF88
FF98
0055
FFA5
0048
FFAB
0046
000E
FF8A
0021
FFBB
004E
FFAF
FFAA
FFA3
0043
FFE3
FF80
005E
FF72
FFE0
FFB0
FFB0
FFB3
FFCC
FF93
FFDA
FFFB
FF5F
FF78
0042
001E
0088
FFCC
FFED
FFEA
0088
0010
0038
004A
0098
FF5F
FFCE
0047
FF98
FFDB
FF9C
FF9F
FF9A
006C
003E
007E
00BB
FFF2
0041
FFD6
003B
0047
FF92
FFB5
FFB7
002F
FFAF
FFBD
FF9F
004B
0068
001A
FF99
FFD8
003F
FC5E
FEB7
000D
FFA8
002C
004A
00AE
0115
008A
FF98
0045
FFC4
0030
FFEE
FF98
FFFB
FFDD
FFA8
FFFA
0052
FFD0
FFE6
FF9D
0034
FFBA
0070
004C
004A
0058
FFDE
FF9D
0047
FF62
001F
FFCF
0040
FFE2
004C
0049
0071
FF79
FFD2
0108
005D
01BD
FB3E
FDBC
0129
02AA
0193
0068
001F
00E1
008B
FD89
FF7F
0027
FFAD
FFB7
006C
FFB7
FF42
FFA0
FFC6
0043
FF92
FCA8
00DE
FFFA
FF2A
FFA5
FFA7
FF09
0002
FFAA
FF7C
01AF
FFE4
0030
FF8C
0054
FFA8
FFF9
00C9
FF77
0101
016B
FF97
FF0B
FD86
00EB
0232
01C6
0148
0219
FE52
0049
FE15
FFBA
0002
0079
002B
00B2
FE8F
0011
001B
FF91
FFAB
FE38
FDCB
FF65
FF9C
FE3F
0006
FFEC
FFC6
0084
FF58
007D
FF40
002F
FF33
FFA1
FFD9
004F
004C
01E5
FFAA
FFD0
FBE6
0108
004B
FFB1
000A
003B
00DB
FFAC
0072
FFC9
FFBF
FFD9
0060
FF14
0031
FFA0
0088
FFB1
007C
002C
FFF1
004B
FFFD
FFE7
FFAB
FFE5
FFB9
0046
FF98
0023
FFB5
FFC2
00CB
FD72
0057
0038
00F5
FF89
0027
FF7B
008F
FFB4
FF8A
000E
004E
0005
0008
FFCC
FFAF
0021
0055
FFCC
0066
001A
005D
FFFE
0011
0063
006E
0033
FFFF
FF5E
FFE2
FF79
FFB5
FFAE
FFED
FF74
0016
FFBC
FF6A
FFC9
0014
FFB9
FEFD
FFF9
FFB7
FF90
FF95
010D
00EA
0013
FF9E
001E
FF48
001D
FF0B
FFA2
FF82
003F
FFB8
FFEA
FFBC
FF9E
002D
FFD5
0013
000C
FFB0
0053
FF56
FFA5
FFCD
0019
0069
0000
0022
FFBF
0045
00CE
FFCF
006B
FF8C
FFEA
00E2
FFD0
00C7
0032
FE58
FFD8
00CA
0019
0011
FFC2
FF84
0021
FFB0
0017
FFB3
FE78
FFFB
FCA4
08C3
FD68
F9DB
FF26
FA1A
FCDE
013F
FECE
FFD9
FFB4
FF8E
FF91
00C6
022C
000A
0020
FF7A
001B
0066
0014
FFAC
0016
0053
0043
FFC9
0081
FF86
0017
FFCC
FF28
FFC0
014B
00C6
0018
0056
01B2
FF8B
002C
0243
0047
FBA8
FCAE
FB06
0045
F736
03EB
0062
0D0B
F8F8
034A
0610
FF8A
FC12
00F9
FF82
012C
02CC
FF0B
F710
0061
0027
FD13
FDD9
012B
00AC
0023
FEC8
F7E1
FDDE
FFC0
01B7
FCA3
FED0
FFF1
009C
0060
FFD9
FF73
FFCD
FB85
0232
0129
05FA
03BC
0077
FA9A
F94F
FFAD
079B
0224
0616
0040
FFAA
011F
021B
FB83
FA9E
FCFE
FEE5
05F8
FDD6
F6F0
FF8B
0040
FEDA
FA2A
03A3
029A
FFA5
F945
F924
FDB1
003E
023B
FB03
FFBB
0030
0080
FFD0
FEDE
004F
FB6F
FD4A
01C7
FFA2
04D8
FD9F
FDC7
FB39
F76B
FD23
FDA0
FE24
0311
0075
066B
0598
FFC5
FF69
FF10
FFDB
0039
048F
FF29
004E
FF4C
00B2
FFBC
FF84
FFAA
FFA7
FFB4
FFF8
FFF3
FFFE
FFC4
0051
003B
01B1
01BD
007C
01C0
FE81
0015
FB9F
01F7
0169
0017
FD4A
FD77
0012
013B
FD37
FF97
0042
FF61
004D
012C
0029
FFA9
FFBE
0224
FF48
FF7D
003E
0026
FFA6
FF96
0005
FF96
FFBC
006D
0073
FFFA
0111
008C
FFA5
FF8C
FFC9
FFBF
FFFE
FFBA
0033
0020
FF84
FFC9
FFDE
FF22
0074
FF80
004D
002C
FF81
FFC2
0027
007F
FF7B
0066
FFF2
0070
FFA3
FF74
0061
00F5
00BD
0026
0035
FFA2
FFD9
0013
FFBA
FF9C
FFBA
0006
FFB3
009E
FFF8
FFC9
0008
FFA6
002C
FFCE
0051
FFBF
FFD6
FF69
FFC0
FF9E
FFD8
FFAC
FF22
FFAB
FF06
0035
FFA6
0322
050B
FFAB
FE91
FF64
F9A8
004F
FFA5
0064
F709
F878
FFD3
0234
FEBA
FD6B
0042
003A
0485
FF08
FC55
FF6A
FFE9
FF7A
FE02
FF58
FFA9
FFDA
0027
FF7C
FF12
004E
FD2D
036D
FFA9
0247
0219
FFB1
FFD2
FF46
FFA7
0066
FFD0
FEE9
0312
0982
FF3C
FD7F
FF43
F6FB
0086
F6FE
00F1
FFF1
FBE9
F903
FF76
0008
FB49
0069
01D3
06FA
00B7
003D
FFCB
F7A4
0522
0335
F77E
F82F
FF9D
F73F
073A
FE2B
FFFB
FB21
028C
001E
050D
0046
FF3B
009E
017F
FED1
FF7B
003B
FA0C
FC96
FD28
FFDE
0392
F988
00C9
FD03
FB9E
F8A0
0009
08A1
F9D4
F801
01CF
FE46
FFD2
FE3E
05EE
FA94
FFA9
FFE4
00C3
035F
0696
FC3B
00C5
0041
F917
FEA5
01A4
06CE
0083
FC27
0471
0495
FF55
FF9C
FE6E
FDD9
00A5
0044
003F
FF8D
FF95
FEC7
FF91
00CC
0028
0037
0080
FE4E
F861
017B
0B4F
FDF2
0086
FE7F
FF90
FE1B
FBED
04A1
002A
FF02
0001
0008
FFB3
FCF4
FFC5
0386
FFB7
FF37
FF12
FE91
FFE5
FFBC
FFF6
04C0
FF1E
FFDA
01D5
FF0D
FC9A
012B
FFED
FC7E
022D
FFB0
FC08
0069
FEE6
FF65
FFA5
FFE3
FF7B
FFF7
FFBA
FFC1
FFE0
0055
FFBC
FE90
00BF
FF44
02AC
010E
0029
007B
FFE8
0052
FFC2
FFAD
0175
0070
FFAF
000E
FF74
004E
0058
01BC
0057
FF0A
0037
FFBC
FFAF
FF0C
FFA7
FFAD
FE04
0052
0084
004A
FFBB
013B
0061
FF89
FFF4
FFBE
0043
FF30
0042
0028
FFD4
0014
005C
002F
FFC8
0027
0056
FF17
FFC1
FF24
FFC2
0031
FFCA
FFB8
FFF6
FFEB
FF97
FFAF
FFBE
FF96
0195
FFDA
FFB8
FF8F
FF9F
002C
FFA3
0046
FFB5
FFC0
003A
FFA8
FB77
0352
FEE2
040A
FBF0
0180
FF64
FFB0
FFB3
FFF6
FFA7
001B
0034
0162
003E
FEC6
FF7F
FFE2
FFC2
FFDC
0179
FF9C
FE5B
0041
FB9A
FEB2
0156
01D5
01E4
0005
0085
00C5
FF81
FF9F
FE74
FEDD
021E
00C1
011D
0012
004A
0043
FDF9
002E
FE19
FCA6
019F
FE31
FC70
005A
FD32
00F8
FFE7
012C
00BB
FE27
FE55
01B7
01C9
FFE2
009B
0451
FD37
044C
0054
FFAD
02E3
FA71
0164
FFF9
FFDA
006D
FF33
0078
FEF8
FF7C
FEC7
FDAA
FF9E
01B6
01B7
02F5
FF95
FDFD
FD38
FF7A
FFC6
004A
0127
027A
003C
FFC0
FFA5
FB40
FE2E
FFAF
FD85
FB5C
FEC9
0083
FEF1
015B
FF6C
012F
004A
06E8
FD7B
0257
FD4B
FC43
043B
FEA4
FE01
FFA3
FEEB
FAD4
0066
FFE4
FD8C
FEAD
FC57
FFBF
002A
062E
016E
FD1B
0071
FFBB
0040
FBD9
FF9C
F9BB
FBD4
FFAB
FF1B
FF97
FEE6
0250
0033
0447
FF8C
FD89
0038
FE9E
FF68
005E
0050
FF81
01A3
FFA3
FDA8
03FE
002B
FF98
005F
002E
0234
0187
0032
FAC5
FFDA
008A
FF06
FB69
027C
FE6A
058D
FF5B
003E
00B3
00FB
FD3C
FFA6
FFAF
0001
0070
FD3D
00B3
FF67
FFA4
012F
0059
0037
0067
0196
006C
0025
FFA5
0033
FF93
FFB6
003A
FFFA
FFEB
0064
FF88
FF82
0023
0077
006B
0000
0025
FFF2
FF6B
FF74
FFF2
009D
FFD8
000F
0112
FFED
FE79
004B
FFA9
FF43
FFA8
004B
0073
FFC2
FFAD
0041
0121
0040
FFE6
0003
FFAF
0038
002E
003C
FFB6
001F
0034
FFD5
FF60
003D
FF93
FFE2
0074
FFD7
0017
FFA0
00B5
FFCA
FE6C
00E4
0037
0057
006C
FFBC
FFDC
FFF8
FFBF
0014
0048
0099
FFA7
FFB5
FF46
FFFD
005F
FECE
FF75
0001
FE63
FF75
0046
0061
007C
FFAA
0001
FFAA
0034
FD5E
FF38
FF7D
FFC6
00A3
0060
0046
0050
FFB6
FFEC
0017
FFD2
0181
0198
FFA6
01F6
00A7
0018
FF81
FF8E
FF24
FF2D
0047
FFBB
0051
FFDE
002D
FF46
FFA5
FFAE
0048
FF9E
FFBC
0028
FF01
0047
0049
0047
003F
0203
FF6D
FE7F
FFCE
004C
0029
FF07
0029
00CD
FFBC
0065
FC49
FD1C
012D
0031
0053
005D
0002
00B4
FFC9
00AE
01DA
00B3
FF36
FD67
FF59
FF95
FDD1
FFBA
FFCB
FFEA
0021
00B2
004C
0088
0034
FF9E
02D4
0055
FFEB
FF8C
FF13
FFB1
FE83
0038
FDC9
FFBD
FFB9
FFC6
FF07
FDA7
FF14
0127
FFA2
FEB8
FF7D
FF75
FCDE
FF9A
00AB
FFC7
FFAA
FC66
0346
0248
FFB2
FFC7
FFE9
FEF8
FFB8
FDB3
FFB3
FF4E
002B
0059
002B
0005
FFB3
01BB
FF5E
00DC
002F
FF25
0041
FF96
FFEC
018E
FFB9
FFAF
FFCA
FDD7
FEAD
FF90
FFA7
0042
0020
0066
0057
00EE
019F
F907
01B0
0073
006D
FFBF
0074
FEAC
00DE
FF97
007B
FD16
FFBF
0021
0016
FDBE
FFB7
0090
002C
FE35
FF88
FFFE
006F
0025
003C
0026
0051
0051
FFA9
0070
FC9C
00A7
FFCD
0054
019A
005C
FFE9
0023
FFAE
FFB0
0041
FE6B
004C
FF7F
FFAE
025F
FF15
0004
015F
FFA1
0064
FF7A
FF0D
002A
FFC3
FFCF
0033
0049
FFE4
FFB1
0008
FFED
FF7A
004B
FF4C
007D
002B
0042
FF8B
005A
0045
FFC1
004B
FF8F
0072
0119
0052
0049
FFC1
0013
FFB1
002E
FF99
FF99
001F
0031
FFC2
02AD
0036
0007
FF9A
FFDA
005A
FFC4
000A
FFB9
FFB3
FF19
FF37
FFBD
FE66
FF1D
FE98
FF80
FF3B
FFB3
FFD5
FFE4
0043
0012
FF73
FFA8
004E
00DA
FFC7
0129
0073
FFD3
0058
008E
0036
FF9C
002F
0014
FFBD
0048
0021
0028
FFD8
FFBC
009A
007B
0021
FFA3
0044
002F
0040
FF8F
FF42
FF34
FEA8
FFC8
FFB3
FF51
FDAA
FFBA
FFB8
FFAC
004A
FFAD
0067
FFEA
0030
FFEF
002A
0023
FFB2
FFB7
FF8C
003F
FF84
FF9E
0166
014E
FFB1
FFB6
005D
FFD1
FFF7
0034
0059
FFCE
004C
010B
FF9E
00DF
FFFD
0076
FEBA
0052
FEB0
FFA0
FF63
FFC3
FFA3
0021
FF4E
FF6D
FFCB
FF72
FFE1
FFC6
007D
002F
FFAB
013E
0035
FFB6
0045
FF78
FFC1
FF60
004C
0031
0067
0062
FFAF
00FB
0055
0028
0038
FF9B
0041
0078
FFB2
FFC9
FFC1
FFC2
FF88
0114
FF8D
FFFA
004F
FFFD
0025
FF2C
FFE4
FEE4
0030
FF03
FEF3
FFA7
FFE7
004C
FFC5
0089
0001
004C
FFCE
0012
FFCF
0017
0133
0061
002D
FF98
001E
FFBF
0027
0003
FF7A
003F
004A
FFE5
005E
0020
009E
FFAC
0013
FFA9
003A
FFC6
FFC5
FE8E
0051
0041
0051
FFA6
000B
FFC6
FE91
FFDB
FFAA
FFEB
FFBB
005B
FF68
FFB1
0045
0045
002E
0040
0049
FF8D
0019
0031
003C
0048
FF9D
0039
FF9B
004C
00B7
FFD7
005D
002A
FF1E
0065
00FE
FFDD
0078
004F
FF9E
004D
FF9A
FFAF
FFBA
FFB9
00DA
00A6
FFC4
FF93
FE78
FFDB
FFD9
FE73
FEF9
0027
FFA6
FFAE
FFD1
00D2
FFA2
FFCB
FFC8
0009
FF46
0033
0042
0036
0052
FFD7
0011
004A
0002
0059
000D
005A
FFC5
006B
0047
FFEF
FF3C
0074
0096
012C
FFC3
FF76
FF9E
FFF7
FFF6
0035
0011
FFD9
FF6F
FFE3
FF9A
FFC2
FFCD
FEF2
FE8E
FFA6
FFEE
FFE3
00DE
FFB1
FEDE
FF8A
0036
0060
FE77
0038
FF75
FFA1
0044
0057
FF1B
0044
FEA2
FFD7
FF80
FFB4
FFF6
0050
003E
0049
0074
0056
0136
0018
001D
00B5
004E
0027
002D
FFB7
002C
FFEB
FE7B
FFE4
001A
0002
FFAC
008C
0045
0075
FFBF
00A0
F96B
0066
FF93
0031
014E
0037
FFA9
FEFE
FF06
013A
0189
FF98
FFC9
FEA3
FFB1
FF60
FF8C
FFB3
0003
0030
0227
00EC
003E
0018
0021
FF70
0011
0020
0120
FFF2
FE93
00B7
FEFF
01B4
0128
00BB
FF69
0041
0070
0045
FFB4
000F
FE8D
FEE2
FBC9
04EC
004D
005B
FFA4
FC33
FFAD
0065
004F
0105
005B
FFAA
FCE4
FFA8
FFD0
004A
0044
00F2
FFFF
FEA6
0089
FF9C
0069
FF8C
FFE4
FFF0
014E
FFA8
0072
FEF6
026B
FF49
FED2
FCE2
0243
019C
0007
0135
FF9A
FDDE
FD0F
FFCD
FF7D
FFAE
FFA3
0015
FFC2
FD92
FFC4
FEF6
0065
0039
0051
FF5F
FF5D
FD70
0040
FFDD
0021
FFDF
0049
00AC
FFF9
0068
0027
0073
008A
006F
FFEE
0079
FF92
0002
0098
FE06
00E5
003B
0210
FF16
00D7
0062
FFC3
008F
0016
FF4A
FFA9
0038
004C
0038
FFC4
FF91
0048
FFAE
FF93
00B1
003D
0000
FE21
FFE7
0026
00BB
007F
FFA1
FFB7
FFC3
FFF3
FF43
FFA5
0045
FFA3
000D
FF95
FFB1
002D
FFDF
FFE0
00DD
FFC3
FFFC
FFAE
FFF8
00CD
005F
FF11
00AA
003C
002C
0040
FFA0
FFAA
FFD9
000C
FFFC
001F
007A
0052
0055
004D
FFE0
FFB3
027A
0055
FFCD
0046
FFB1
FFDD
000D
0050
FFA1
FF95
FFA8
0008
0042
FF8A
0042
FFBB
FFF7
007A
FFCD
00AC
FFC8
0021
FFFB
FF9D
FF94
FEF9
FFA2
FE86
FF9D
0104
0021
0052
FCFB
0192
FDFA
FF9F
0124
FDB6
FF25
FFB9
FB0D
0031
001B
021B
003A
FE33
001C
FF40
0055
0050
000F
FFA3
0031
0091
003B
00A0
FFF2
FFFF
0033
0043
0126
0011
0049
0042
008B
004E
FF98
FFEC
018D
00C3
0043
0070
FFBB
F844
F70F
02F1
0D85
F5AA
FEA6
FE93
005E
0051
0136
FDA5
FEED
FE83
02E5
FFA2
FEF6
FE47
FDFF
FAAD
FFD7
011E
FE19
FFB4
038A
004F
0109
FFDD
FAB7
FFEA
01D1
FFAD
0024
FDEC
028A
FF21
01B9
0330
0013
00CB
FF3C
FE6A
FF9B
005A
0097
0255
FF66
0145
FE00
0448
FF1B
FFDE
FBDD
FF7F
0795
FFE4
FD29
FF3C
FF76
FF3F
FEC8
FF9B
0397
FBB2
FE8C
02CA
FF63
0116
0013
FFB2
FA1B
FDC9
F87E
FFC7
FF7E
011E
FE1E
FF7F
FEDC
FF91
FD55
01A8
FF1A
0044
01DD
FC4C
01E8
FCAC
0041
002E
FEF4
FF85
FF1D
FEF2
FF5A
0024
01A5
03F7
FFCA
FD4A
FDBE
FFA8
00CC
00F1
FDC1
000E
FFCF
FFAF
005E
FFAA
FFD7
FFAC
0013
FF94
00AE
FFCD
FFA6
00AB
FFC9
FFBE
FEA5
0016
FFB6
004E
FF64
00F8
FF75
0293
0127
0018
FE47
001B
001C
0043
0028
FFC3
002F
FF86
FFAB
FFA6
0017
007B
FF52
FD66
FDB3
FFDA
001E
FF0F
FF67
0071
FEFA
FF87
FFA8
FFB4
000D
FFB0
0048
0027
FFA8
0005
0062
FFF3
FF4A
FFAA
0141
0147
0055
004B
017D
0020
000B
017E
FEF4
0042
FFD8
FFC5
002E
FFA9
00A4
0083
0020
0031
FFD1
004F
001E
FFD1
FFBE
003E
FFAC
001B
0027
FFC1
0016
004E
FF88
003C
FFA1
FFB9
FFE6
002B
0035
FFB2
0151
FF6D
002A
006C
FFB0
FF98
FF2D
FF90
FF68
FF43
003D
FF0C
FF73
0083
0047
FF6E
035D
FA8E
03BE
FE57
0048
00D8
00AC
F8CC
FCC9
FFAE
00CD
FF99
FF8D
FF2E
FD0F
FFF6
FFA4
FE4C
FFAA
FF91
FFC5
FF1C
FF84
FF92
001B
0033
FEAD
FF7B
FF9B
FFDF
FFA6
01D6
0073
FF8D
FFBC
0039
FFF9
01A6
0042
FFAC
0073
0937
F7AE
F7E3
02A2
07E6
00C4
FF9A
0099
05EF
F7FE
F714
F8C7
FD19
031E
FF74
0012
FE1A
FF79
FFAE
FC86
FDA7
FBEF
FFAC
FD1C
FF6B
FF9E
0331
FC74
0776
FEF3
F709
010F
FFA7
0224
FFCE
02C6
0301
FD87
031B
004D
FFA9
FE53
FE1A
FE3B
0335
0141
0318
FB3B
076D
0037
FBD1
FB5C
F711
FE4D
060C
F5CA
FF63
FF77
FE33
F70C
FE98
05F9
F73F
FBC8
00D8
FF7B
FD27
FCBA
09AD
F70C
0167
F9D2
FDFE
FFBB
FFA8
FF09
00F5
02A9
003A
FD20
FFA3
FF4D
FBBC
FF8E
FC05
FF89
0045
015F
0092
FFA4
0055
FFAB
FFD4
04D9
01FB
F95E
022C
0106
F968
FD4D
FEBB
005A
0263
FDED
0006
FFA9
FD54
0018
FD88
FFFB
FFC4
FC7E
FF76
FE65
0043
004E
FFF7
FEAB
FD1E
FF26
003E
0021
FF3B
FF2C
FE69
FFC3
0311
FE4C
FFFE
FFBC
FFF5
0029
FFAE
005A
FF97
0072
FFAD
FEF4
FFF2
FFB9
FFA2
FDAD
FCF7
FC7E
FFBE
FFC7
FEBA
0021
FFD6
FF8B
0001
0068
FFD4
001B
005C
006E
0057
FF8E
FED3
FFE6
FFB4
FF36
01D9
00BF
0186
FE95
0040
02D8
0072
FF35
0024
FFFE
002B
0040
0040
0051
FFB8
0091
FFA9
0042
FFF2
005D
0048
FF9A
FFD8
FFCC
FFF3
0065
0049
000F
FFB7
FFC7
0048
FC9C
FFA7
0184
FFAA
FFC0
FF98
0093
0034
004F
FFA2
003A
FFB7
FE65
FE71
FF5B
0000
FF9C
FFBF
0010
FED0
005B
FFF9
FDBB
FD03
0123
FCA0
02FE
003D
0031
0060
FFF4
FFA8
0189
FFD8
01F4
00D4
FFDF
FFAB
FF88
FF90
FF82
FF02
0038
FF6E
FEF7
0007
FF82
FF4E
FFCB
005C
00A6
FCCB
FF33
0050
FF47
0172
FF5D
FEFF
FFA2
001A
0059
0168
00B4
FFA4
005F
FD36
FD9C
0014
FB5B
09B3
FFAC
FFE6
FF3B
FBB7
FF96
FFED
FC57
02B9
0011
FFA3
0039
FFA2
FC47
FF65
0219
009A
FFB4
FDBB
FE81
FFBB
FBE3
FF69
FD6D
07FA
FD21
F723
FFB6
FFC5
01B4
FDC2
0325
02D1
FF36
0260
0049
FF66
0048
FFBA
FE76
FD6C
FD21
FF6A
057D
FEE1
FDAB
FB92
FFBB
0077
FFBB
025E
FC91
0139
FFA8
0037
FF39
FF36
04F9
FD92
0047
F736
0119
FE9E
00A5
004E
03C5
FFA7
005C
FDB7
FF56
F706
FFB6
FF96
030A
0282
FF09
014D
FFAE
FE53
FFD3
FFC7
FDF0
FE21
FEC1
FFC0
FE76
0053
FFA0
FEC7
F72C
003F
002C
FDA4
FD04
0011
005A
FFAB
0288
FBA4
FFAC
FD3F
0554
00DF
0065
0292
0067
0902
FB86
0377
02DF
FF77
0307
0053
F833
00BB
00BD
014A
012F
01FA
0020
FF23
0046
FFA7
FF97
FB67
FB22
FF0C
0040
FFBA
FF61
FFE6
00E3
FF97
FFB8
004C
FF64
FF59
0068
00B0
FBDB
FFA3
FFB1
FFA3
0033
0038
FF80
004F
FFC2
FF8B
FF85
FFA7
FF1B
FF9D
0023
FF9F
0041
FF87
0071
00E7
0070
012A
0019
0083
0124
00AA
0114
FF81
FF30
0042
0065
FFB0
FFDF
00B4
015C
FD3F
0048
017A
003A
FFC5
0008
0061
0018
003E
0071
013B
0170
FFB4
00CD
0007
FBB0
FFBB
001E
FD41
FFD5
FFB6
0016
FFAA
FF8C
0152
FF7C
FE78
FE19
FF80
FEEB
FF97
FF9C
FFA1
FFB2
FF25
FF25
FFAF
0120
FFA9
0046
FFBB
0048
FFA7
FF66
FFC3
00F6
00BA
0042
FF96
0339
00B4
014B
006F
00AA
0059
0128
FEC9
FFD6
FE3C
FFAB
FF9B
FC67
FD7D
FF72
FE2F
FEFE
FC60
005D
FFB9
00D4
FFD8
FF57
FFA2
FFFD
FF7B
FFF9
0006
FFD6
0037
FFA4
FDB1
FF8D
0072
FDBF
FE33
FF06
0000
FFA7
FFC2
FFA9
0026
FFFC
04CB
023E
FF78
FFF9
FFE3
FFAC
FFAC
0264
00D5
FF22
FCBE
0028
FDE9
FCB6
0024
FF95
FE4B
018F
FEB0
0002
0049
001C
FF44
026B
012B
FFA3
FFF1
FFB8
0076
0053
0110
FDD4
FFAC
FDF9
000E
0312
FEF3
0057
FFA1
FCF7
0103
FFFD
FE83
041D
FFD0
FFB3
FF45
FF8F
FF7D
FFE8
0258
0180
F9EE
FE33
FFB8
0496
F74E
049D
FBB8
0042
FE3E
0054
FF3C
FFC4
FF9D
019D
01D2
0036
010F
0078
FFA3
00DD
0036
FFB0
FBFC
FF4C
0014
FFBB
FD68
FF95
FF99
FFAC
FD21
0299
FD7C
FF66
035F
0049
FE4A
FF02
FFCD
0014
FEDD
00E0
0057
00F5
FEE6
0002
03B5
FA60
013B
036E
0030
0372
FFA8
FD0A
002C
0069
0035
0050
0082
0054
01C3
0048
002D
FFB1
FFAC
0074
0057
01F2
FFAB
001F
FFA8
0021
0134
FE49
006D
0041
FCCE
004B
022B
001C
005E
000A
0236
FFCB
FF7B
FE7E
000C
FF8D
FFA5
FEBD
FE02
FF75
FF09
FE68
FFD8
FFF1
0138
FF0B
FFC2
FFD8
FF4A
000F
FFAB
0060
FFBC
0039
004A
FF58
0086
0069
016F
FFF6
FE55
0040
FFEE
FFF3
FFA6
FFAC
0147
002C
FF99
FFD4
002B
FF9C
0003
FF9E
FF89
000D
0029
004E
FF2D
FF94
FFE1
0046
0023
FFF3
FFBB
00C4
FFB4
005F
FEA2
FFD8
FFAB
0032
000A
FEB2
FFAC
0043
FF26
FF9C
004A
FE7B
0010
019A
FF83
FFA5
FFCD
FFAF
FFC7
FF98
0037
0109
017F
FFB8
FFAC
FF9D
FF44
0079
0060
FFAA
0028
005A
FF13
0030
0023
005A
FF90
FF0D
FFE9
000F
000B
FF3A
00F7
FE8B
FFA7
FF34
FFF9
0063
FFA7
0006
004B
00AC
FFD8
0078
FFDD
0041
013F
FFD8
000E
00B0
FF67
FFA7
FFFE
FF89
FFAD
0250
FF7A
FF8C
FFC6
FEE9
0067
002B
FFE0
FF9B
0138
FF3B
FFB5
003D
0090
0032
FF9C
FFB2
0149
FFFB
FB57
0044
FF25
005D
FE0A
FFE4
FF3D
FFB9
FFE9
0042
0005
0021
FFB4
FE4A
FEE8
FDD2
FF89
00D9
00E6
FFCE
00CE
FFE4
FFBC
00FA
FCD4
FEA2
FFC5
FF9B
0007
009A
004F
004C
FF4D
0056
024F
FFB0
FF11
008E
0053
0006
FFBB
FF59
FE15
0359
004F
FFAC
0086
FF99
FFA9
FFF5
FFDF
FFD5
0049
FE0C
0057
FE1C
FD58
FD54
0008
0085
0258
0047
015E
0041
FFB8
FF4B
002C
0133
FEA9
FFD3
0021
FFA8
FFCD
FFBF
FFF5
0049
001E
FF7F
004B
FFAB
FFDC
0044
FFC2
00FE
FF7C
FA6D
FEE8
005F
FFC9
FFCD
002C
FF6B
0048
FEBF
FFB0
00AC
FE09
006A
FF9B
FF07
02D1
FEB6
FED4
FF3C
004B
0105
0065
0065
004D
FF99
004B
0000
0069
0034
FF69
FFD2
FD67
FFC8
FFBD
0020
02B1
001E
FFC3
FFD9
FFAD
FF94
004C
014B
FDA6
FF68
FFB2
FF54
0031
FF5D
FF71
0046
FEE2
FF90
0015
FF91
FF99
00BE
FC82
FFCA
007D
0077
FF7F
00C9
00AE
0044
009B
FF9A
00B9
FED4
000A
FFEE
FFA5
FFF8
0010
FF9D
003D
001B
001A
0054
FF8D
FFD5
0036
0067
002D
FFD0
FFF4
FFAC
00CC
FFEC
FD5C
0003
FFAA
FF2F
FFA4
FFCB
FFA7
FFDF
FEE4
FF5B
FFDE
FEE9
015E
FFB8
FFB5
FFB9
FFA8
FF9B
007A
005F
FFBC
00B9
0011
006E
FFA6
0003
FE81
0092
0048
FFB9
0011
0050
003D
0001
003A
FFEB
0072
FFA8
FFC4
0029
00FC
FFB0
006D
FF17
0052
FFA5
FFBC
FF9F
FFBD
FFF5
FFAB
FDEB
FFAC
FF37
0012
FF96
FB9D
FFA5
00A2
004D
FEC8
FEEE
FFDA
0088
FF1F
00AB
001C
FF55
0199
FF89
FF99
003B
00A6
0041
018C
FFF6
FFCB
0042
FFAD
00EE
00AA
005E
0079
005A
FE83
013A
00FE
00F1
FEB6
FF2A
FE27
0083
0045
FF84
FEF3
FF77
FEE3
0052
FB2D
FC06
00FB
FF8F
008C
FFA3
FEAF
FD40
0154
FE87
FE88
FE67
FFD8
02B9
FF58
FF81
FFCB
0307
0041
0172
00B3
FFA1
00D0
FF85
FFCA
FF54
FE50
FE7B
FC0D
024B
040E
024C
0030
FFB7
FDA0
FD77
0023
035C
000B
FEEB
FFA9
FBF3
FD11
FCC5
FF99
FF96
0009
0135
01A3
FE1D
00E4
FFA4
FFA5
000A
FED4
FD80
0212
FEEC
FFD6
FFA5
0065
004A
FFA6
02B0
00C7
FE8B
FE25
0182
FF7C
01F3
FF1D
FD4B
0054
0009
01E9
FFCD
006E
FFDD
0048
FF93
FFE8
FFC9
FE37
0043
FF82
FDE6
FE60
FFB7
FFE8
FF96
FFAE
0266
0067
01A0
FF1C
0067
FF80
FF84
FF65
FF8E
FF9E
000E
FFCD
FFA7
0042
FF5F
0028
005D
006E
FF8E
014E
004D
009F
00EF
FEF1
006E
FEEE
FFC2
FF76
FF71
FFE5
0004
FFCE
002C
0031
FF8F
FFC3
0032
FC3F
FE05
FFA1
0207
005F
0015
01C0
00A3
006A
FFE5
001F
FFE1
FFBF
006B
FFB1
001B
004F
FF8C
00D7
0026
FFAF
FFA3
FFA1
FF9E
FF98
0029
FFB7
FFB5
0075
00F9
0027
FFB9
FF20
0047
0050
FF14
FF80
FFA5
0051
FF5D
FEF8
FF78
FFA8
FF8F
FF9E
FF5D
FFA0
FE7B
001F
FE42
FF25
003F
FFE4
0081
FFFC
FEF0
02F2
FF45
FFB7
0170
FFC5
005B
0049
0097
FFD4
002B
0189
006E
000E
FFF3
FFBF
020E
0082
FF87
0041
FFFF
0016
FF84
013D
FF98
FFFD
005E
FF49
FE5C
FF7B
0013
FFA8
0031
F732
FB03
00C7
FF71
FCFB
007A
FBF8
FD15
07B3
FF00
000D
FF4E
FF74
FF1A
FE84
008D
0070
01A4
016E
FF06
003A
01F7
FFCC
03A3
0069
0038
01EC
FDC5
FDF6
01DA
00EF
0020
FE36
FDD3
00A9
0096
FFB1
FE07
0009
FF7B
0662
FFA8
00C9
F898
FB83
042F
00C7
029F
01CE
FA21
0042
FE27
0001
02C5
FC92
FF30
FB89
0421
0045
05C0
0306
FE4D
0054
FF96
0305
FCB4
FE35
FBE5
FCEE
FE90
FD84
FE9A
FFA8
02A8
FF61
FD02
FD5E
FFA0
0022
0502
FF64
0431
00EE
0161
FF79
FC13
FDEA
006C
0154
004F
013C
0012
005F
FFB8
F93A
0051
FFA6
FFAE
FE91
F9BF
02CA
FFC0
004C
0037
0126
012E
005B
01C2
FFE0
FFEF
FF91
FF66
FFCB
FF1F
00A1
0173
0207
FFA8
0240
0007
FFB1
FF82
005D
FF85
FFAE
0112
FDD1
FD03
FCC2
FFC8
FFAD
0047
003E
0022
FFE0
0117
FFB3
0048
0073
0070
FFA8
FD0B
FF8E
FFFC
0052
FFBE
0055
FFF2
FFA2
0066
003D
0056
FF9A
010A
005D
01B0
FFBB
0056
002D
001E
FFB7
007D
00F6
FFA7
003B
0020
0042
FE57
FDF4
FD21
FC86
0041
FFAA
0113
0038
FFC5
0243
015B
0054
0033
FFDF
FF88
FE55
FF38
0012
FFA7
000A
FF98
004A
FFAB
FF9B
004E
002A
0111
FDF7
FE3D
001D
FFCC
FFCC
00E0
FF7D
FF97
FFB0
0046
004E
FF29
FEE1
FEFB
0043
FF6A
FFC3
0024
0018
FB02
FE7A
02C7
FF6A
FF48
0059
0034
FF97
FF97
00B4
FFF4
0020
FE08
0271
FE32
FFF2
007E
FEF1
0059
FFCB
012E
FF54
FFD8
0052
FFC8
FF62
0024
0038
009A
FE08
FF69
0027
FFB0
FFB0
00CA
0225
FFA7
FFA8
FFD5
FF2B
FD04
FF8B
FFBA
FF92
01BA
F70C
0014
FD6B
F8E0
00D1
FF70
F64B
FFA2
0D19
FC0C
017F
068B
FFA4
FF59
00C7
0029
0125
0183
FE16
FDF6
FF97
000D
FF0F
02EF
FA52
FEA6
FF31
FC72
FF81
00A3
00EA
FFBD
0023
0309
0047
FFAC
0467
FB8D
FFDB
0025
06A9
FF8C
FFB9
FF9E
FD30
FE02
FD79
03C3
03C6
F8E0
019A
03AB
0B09
03AB
FF83
FF84
FB5F
07CB
FFFD
FF7C
02D7
F310
FC5B
FF6B
FF90
F916
FFAA
FC01
FBCD
F7BF
FD5D
031F
FFA2
0147
034A
0151
FD92
FEEF
FF9F
FF10
FC2E
0152
008E
0363
FFA8
FEC2
F8DB
FF61
014C
FA29
FC49
031B
01AC
0219
003A
FFBB
FFB8
0412
FF33
FC9E
0534
0030
0053
0049
FF0A
011A
FE4E
0234
FF57
007F
FF2D
FCDC
FD9A
FF36
FF79
02F6
0060
0039
0035
030D
FFA5
FF9B
FDDD
003D
00AE
FFB2
FFA5
FB75
FD3A
FF86
FFAA
004B
FFB2
FDCC
FFCC
0056
FFA0
00A9
003E
FF85
0061
FFB3
00AC
FFB9
FFDB
0195
FFAA
0019
0037
FFC1
00ED
007E
0009
0040
FF91
0021
FED7
0015
00F9
0156
015E
003A
0233
FEF6
00BB
FEA7
004C
FFB3
FF87
FE24
FB95
FFA3
FFAF
FFFA
0039
0132
02F1
014A
00DE
FFAC
FFDB
008F
FFFE
FDB7
FFAF
FF93
FF9C
0040
FEF3
FF4A
FF55
002F
001E
0095
FEAF
FDC9
0045
0011
FFF5
FFFE
FFBE
FF9B
FF50
FFA9
0007
FF8B
FF98
FF27
00A0
FFA7
FFAF
0038
002E
F92A
FFF5
01D3
FFEC
005A
005E
0373
FFA9
0299
0045
FFBA
FE3F
00E3
0067
FE29
004E
FFA6
00AE
FF6A
FF48
0063
FE06
FD8E
FDF0
FFBD
FCF4
00A6
FFB5
FEC4
F7ED
0075
FEB8
0003
FF26
0090
009B
FFC4
FEF7
FEE4
FFB2
FDD5
0024
0055
FFA7
00FE
0339
008E
0175
FF9D
00E7
FDFF
002E
028D
FF01
FD25
00DB
03C3
01F2
00E8
FE50
015F
FF5B
00BB
FE9B
FD77
FC82
FA1F
FFA6
FB8B
FC46
FFA3
F78C
FCF7
FDB8
FEFD
01C1
FFA7
021F
03B5
004F
FFE3
013D
FF03
FDC5
004C
FF35
FFC0
FF61
FF7D
01F6
02C1
FBCB
FF53
FC80
F746
0629
FA71
089F
0040
044E
042F
0061
FC95
0137
00B2
03B2
01AF
FD61
FD91
FAFB
FB22
FE0C
01D0
FA80
F7F3
FB1F
02F0
FED2
00C0
02F9
0688
FD75
0036
007B
FF76
FDAB
FFF1
FFA7
FE43
FFBE
0127
FFC9
0019
013E
0060
FC26
0183
FF60
01B8
FCB9
FBD6
FE81
026F
01D5
009A
FF41
003B
FFF0
004A
007C
0052
FC1E
0049
FE1C
03A3
FFA8
FD43
FC50
FE1E
FD13
FF6B
00EB
0138
0145
0033
00DF
FFA9
FFB4
004D
FFA8
FFA7
FAFD
FB02
FFAA
0045
FFB7
0033
FFFA
FFAD
00BC
0022
0050
FFF8
FFE4
FFBD
FF8E
FFCB
01D1
0046
0024
01A1
FED9
0018
FF57
FF30
00D6
FF6D
FF80
0024
FD2A
FCD2
FECA
00DB
0034
FF76
0058
FCDE
002D
004F
0025
FFB0
004D
001C
FFFD
FE65
F9EE
FF13
FDE9
0082
004D
0206
01A2
FFFC
00BA
FFB5
00A1
01DE
FF90
FE45
FF9A
00A0
FF7D
FFFF
FF93
FF2C
FF31
FFC7
002B
FF90
FF4C
FFCA
0011
0095
000A
0159
FFE5
0047
FF1F
FF93
003C
FDB7
FFC3
FFF3
0237
0043
FF26
003A
0015
FC10
FEBA
FF4E
005B
0073
0260
00C7
FEEC
01A2
004A
0044
FFC4
013A
002A
FF70
0144
FF69
FFB7
FEE9
FF12
0032
0094
FE01
FCF3
FFAB
FFC2
0044
FFA5
FFB6
FCF1
0123
FF8D
0061
FEC2
004A
FFF3
FFA0
FEF3
FFCE
0012
FE66
FFA9
01B3
FB39
FFAC
FFB6
026D
003B
0003
FE9A
0057
026D
002F
FF08
FF3F
00A4
0005
FF9C
026D
FF9F
FFF6
FCFE
00B0
FD32
FFA6
FDBB
FFBB
FFA4
FC85
0044
00AD
FF96
FFBA
020F
FCCF
009E
FEEA
FF97
002E
FFAE
FF88
FFB1
FFAE
FC34
FFA4
016C
FA25
0011
FF8D
01F8
0054
FFE4
FD6F
01C8
FF9A
FFAB
FF9E
FD82
FD7A
FF57
00A2
0256
008C
FFFF
FF75
FF9A
FF7B
FD59
FFDE
FF8E
004D
FBB5
034F
FF8B
01F9
FCA3
05B6
FE65
FF9C
0013
00AE
FCFD
FF9B
0049
FF20
FEE9
FF78
FF9B
FF2C
FDDE
015D
00E7
02C0
FFD8
FE70
FF05
0188
FECA
FFD0
FF18
FF61
003B
FF3F
0062
00FC
FF8D
FF8A
FDF0
00D4
006A
FFD0
FEBB
FDA4
0062
0020
0141
00D5
00F2
0024
01A9
FD2E
FE1A
FFB1
FFA9
FFCF
FFA2
FF71
006E
0055
FFA7
0006
FFCD
FA9C
0734
FF19
01D4
FD8D
FDAC
005C
003E
0081
FFB6
FFAC
0068
0048
0049
FF76
FF63
FD46
FFCE
FF19
005C
FFA3
003B
FF9D
003A
FF99
FFA7
014E
FF70
0012
FF96
0168
FF2E
FC96
FF9B
FCF5
FFAE
FFC3
FF7A
FFF8
004B
FFE6
FF81
0296
050B
FFD4
FFA1
0059
FF41
FB22
FFF1
0170
0061
FFB5
FD5E
0035
0039
FFD7
FFB1
FFFB
FF9F
FF90
002A
FFBF
FFA2
003C
0033
FF9B
FFBD
FF94
FFDD
003F
0039
0050
FDF2
0023
FF9D
0023
000E
0074
0045
FFA9
000D
0041
0022
FFE9
00BF
006D
01E1
FF75
0041
FFA5
FCE2
FFB3
FFD7
FFFD
006B
FF0B
FF9D
004E
FFEA
FF8C
0059
FFE8
FF8C
004F
FFAC
FF7B
FFA5
004A
FFF7
00D7
002D
FF2E
FFB0
FF98
0047
FED4
000B
FF0E
0055
FFB5
0017
0045
FFA8
0039
004A
005F
0063
0049
003C
007D
FFC2
FF9F
0046
FEE6
FE95
FF9E
001F
0035
0023
0134
0140
0019
0039
FF71
005E
FFE6
004A
0034
FF39
FF93
004F
004C
0009
FF64
001D
FF85
FFFE
FFAA
FF4E
FF86
FF30
0087
FF84
002D
001D
FF90
FFEE
0041
FFF1
0015
FFDD
021F
FFA9
FF77
FF1C
0018
FFA3
FF0F
FF20
FFD0
018C
FFB5
FFA3
00B6
FFBE
FF9B
00DA
0021
004F
0011
FFB9
FFF0
01C8
FFAA
FF03
0103
0024
0040
FF5A
FFA3
FFA9
02E7
FF9B
FF83
005E
FFBE
FF8D
0059
FF95
FF10
0011
FF88
0010
0069
FF55
004C
005B
FFEE
0019
003D
FFA1
0010
FF5C
FFAB
FF8F
FFB2
00E1
FFF6
0035
003B
009C
FF8A
004D
004C
FF57
FF94
004C
FF78
FFA4
004D
FE04
0061
000F
FE48
FEAC
002D
FF84
003D
FFAC
FFF4
008B
002E
FF81
0044
004A
0053
0107
020B
005D
0069
FFBB
00B3
FC47
FFD5
FF51
FFBC
FFE8
FF99
FF9C
0027
FFE1
FF62
FF6E
FFA7
FEC5
FF87
008B
FBA9
003C
FF9A
0066
FFA0
00DD
FF49
0045
FFF1
FFD4
FEEA
0031
FE5E
015A
FFBF
0052
0038
0044
FFAF
001D
0216
0155
017D
FFB1
FFFF
FFFF
FF24
FFB4
006C
FFE3
0043
00E0
FFC5
FF88
0078
003C
0073
FFA6
015E
FFA1
FFA1
FFC1
FFF8
FF9B
0055
FFFD
FFA4
0034
FFA7
FFC3
000D
FFAB
FFCB
FE9E
FFF2
FFA4
00F2
004C
0020
0008
FF92
FFF5
0028
FF84
0033
FFF7
FF9B
0157
0125
FE4F
002E
004C
FE80
0048
0045
FFAF
0037
FFBF
FFF5
FF6D
0059
FFAE
FECD
0052
0054
0051
FF31
0029
000A
FFF5
FFC3
0028
FFAE
0020
FF49
0012
FE1E
0001
0077
0074
FFC3
FF75
003A
000F
FF94
FFAF
FF77
0043
FF95
0140
0021
FFBA
0052
0007
FF89
FFA4
FEDF
FF91
FFC4
FF8B
FFDA
FED6
FE5B
02E6
FFA8
FF9B
00B6
0288
FFC5
00E9
FF09
006E
FF9C
004F
FFA4
0031
00D0
FF9F
0012
0047
008C
0061
FFC8
FFC3
FFB9
FFA7
FFB5
FF9D
FFA7
FFA4
FFA4
FFA7
008B
003C
FFCD
0076
FFB2
FEBF
FE98
FFBA
FFB7
001B
FEDF
0166
FF3D
FD46
0286
FFBE
0004
00EA
017F
0047
FFFD
0039
0041
002C
002F
008B
FF48
0159
FFD3
FFC7
004B
0041
0107
FF8F
FFA4
FFE2
FFAE
FFAB
FEBB
FFC1
FFA5
FFA8
FF43
0043
0050
0174
0086
FFAC
0032
0013
FFAB
FFFC
0045
FF8B
FF74
000A
FDB4
01BA
0075
004C
003E
0023
FFBE
FFE9
0010
FFCF
0036
FF96
FFCE
FF58
0046
0032
FFB6
FF91
FFA7
FFF8
FFB7
FF9A
FF1C
0003
FFA9
FE21
FFAD
FFA9
FFB0
FFA5
FFA1
FFED
0020
002E
0045
01DD
004A
0037
0045
0026
FEFD
FFA2
FF97
0065
FFAE
FFCF
0067
FFCA
FF9B
0054
FD76
FF54
FF9F
FFB1
FF1A
0043
FFD5
FFC5
FFA5
FFD6
FE76
FF87
FFD9
FFAB
FF9E
0036
0020
FFE3
FFA6
0024
000D
FFDA
FFEA
FECC
FFB5
FFC5
0082
006E
015D
002C
FFA3
FF95
0004
0035
0066
FFC1
009E
FFAA
007F
0060
FE6D
FFAE
000A
0022
FFB4
FFC2
FF99
FFBF
0059
FFD2
FFC2
0059
00AC
FFBB
FFDB
003E
003F
0003
003D
001C
FF8F
FF98
FFAB
FFA8
0007
FFC5
FF29
FFCB
012D
FD3A
FF84
0008
FDE2
02A0
0263
FDFC
060A
FF9D
FE27
0046
FF69
FF7F
FFAC
FFE1
0037
0044
FF85
FFA3
FFD7
FFE6
0055
00C2
FED9
004D
FFF1
0095
FDBC
FFF5
000F
0017
FF61
FF97
0020
FFB7
FF4E
FFA7
FFBE
FFA8
FFC4
FFEA
0069
01D7
F9FB
FEF6
FFF6
FF93
FFFC
005F
FB64
07C5
0054
02D6
F9EA
0027
FC9A
FE06
01CC
02BF
0004
FD43
00BE
FEB4
0033
0008
00FB
0107
FF9A
FF4D
002C
FF37
FFDF
00AC
FF91
FFA5
FFA2
FFA9
FF9B
FFC2
FFAC
FFA7
FF7F
001D
FF93
0067
FD78
FFE8
FDFB
0126
FFAF
FD96
0029
FCE4
F912
FFED
0701
FAEC
00D5
FEB8
00A6
0233
017F
003D
FFCA
FFC6
002D
0120
00BA
FFE2
016B
FFC9
FFFB
FFBA
0045
FF3C
015F
FF89
FFA2
FFBB
FFAC
FFAC
FFF6
FFAB
FF88
0037
FFA2
FF77
0056
FFB1
FFEA
0024
00C2
FFB6
00FE
FFB0
FF7E
FC91
FFC8
01EC
FD7D
FF4A
003E
0164
021F
FFB8
FFA2
FFDE
FFC5
FFDA
0067
FFCD
FFB1
0005
006B
00EA
022C
008A
0055
FFF0
FFAA
FF9C
FFA7
FFA8
FFA1
FDBB
FFAC
FFA9
FFA7
FF15
FF95
FFAF
004F
001E
0001
01D7
FDCC
004F
0129
0199
0019
FF68
000B
018A
FDCE
FFE6
FFF4
00ED
FFA7
001C
FFB4
FEE0
FFAA
FF7E
FFB0
FEFE
0080
FF67
FFCB
00DA
FF34
FFAE
FF9A
FFA2
FFA2
FF09
FFB1
FFB7
FF77
FFAA
FFF2
FFA7
FEF6
0034
0029
001B
0080
0051
00F4
002C
FF58
FFDE
0020
0007
005A
005C
0062
FFA2
00E9
006B
FF6A
0003
FFC8
FF87
FFE9
004C
FFCC
FFB7
00A0
FFC0
0007
FFF1
FE4E
FF16
FFDD
FFD9
005D
FFB5
0047
0025
FF9C
0026
FFAC
0002
FFFA
FFA4
00C9
FFBD
FFCC
009F
FFE9
0012
FFA4
005E
FE4D
010B
0383
024D
005E
01C1
FFA5
FFD6
006C
FE5B
FEEB
0020
FFA2
FEEE
FF9A
FF9F
FFA0
0046
FEF7
002E
00ED
FFD4
FF74
FF99
0002
FF88
FFAD
0054
FFA7
FFAF
FF46
FFAC
FFA3
FFDD
FFF1
FF96
FD79
FC68
FF86
FA18
FE52
FFC0
F87E
F71A
FCA5
10DA
0105
076A
FEAF
0001
FBC7
FEAF
FF9C
FE2E
0051
FD83
FF86
FD2D
0241
FFA7
04A0
FBA2
FF69
022C
FF53
01A0
FFBC
002A
FFA7
FFCC
FFA9
FFA9
FFAA
FFB0
FFA7
FF8B
FFBF
02D0
0040
FF87
FF3D
FEE4
FD74
FE98
002D
FED0
F703
0064
00AA
012F
0B1F
FDF2
FFAB
FE32
03F0
0066
FD03
0114
00A8
FF3C
FFBC
014E
0003
FC9E
005B
FF88
006D
00E4
FFFA
0041
0119
FF86
FFA6
FFAB
FFAA
FFAB
FFC5
FFAF
FF88
0043
FF9C
FFF6
FF63
FEEF
FBF8
FACE
FF96
FE7C
FFC7
FED8
0074
FFBA
FEF0
041A
0440
FED0
FFAF
FF7E
000A
000F
FFE0
00E8
0181
0055
01A0
FF96
0019
00EE
00AF
004E
01C6
0158
0111
FF04
FFA4
FF96
FFC8
FFA7
FFB0
FEE6
FFD3
FF94
FFE4
FFDB
FFA7
0037
00C1
001B
FFBB
001E
FD88
FFB8
0010
00E5
0160
FFC3
FFC0
023F
004A
0120
FF41
FECC
0060
004F
FFF4
FFCD
FFAC
002E
0004
0048
FFFA
FFD1
0047
0073
0023
0019
FFF7
FFA2
FFA7
FF99
FFA7
FF8A
FEF6
FFA9
FFB8
FEAA
0070
0010
FFB3
00C6
003F
FFC1
FFEB
0117
0064
0014
FFBA
FFB6
FFDB
FFA9
FFED
FFF9
0032
0052
FEB8
FF98
FFB4
000A
0063
004C
FFA4
FFB2
FFF9
0059
0060
FF98
FFB3
FFB2
FFF2
0034
0038
FFAA
00DF
0044
FF95
0039
FFAF
00A2
FFC3
FFB8
006D
FFA6
0051
0003
01AA
FFE6
FF9E
0099
0049
000D
FF90
FFA6
FE76
0097
FFFC
0055
019A
000E
FF82
FFD7
FFF6
FFCB
0037
FF72
FFA2
FF99
FFED
FF94
0221
002B
0076
FE9C
FFF1
FFA3
FF1D
FF88
FFAB
FFA6
FEB9
FFA7
FFB0
FF96
FF39
00FC
005B
FFAF
017F
FF79
FFA5
FFAC
001F
FFD8
FFFF
01B8
FFC7
01EF
005C
02F7
FF2D
001C
0193
003C
FB74
FF9D
FEAB
FF24
FF93
FFAB
FE2C
FCB2
FEB9
FF70
016A
002B
FF26
0140
FFA7
001F
FF95
FFAA
FFAB
FF71
FFA8
FFA9
FFA8
0000
FFC7
FE48
FEE3
FF61
FFEB
FF1A
FFA5
FFA0
FFAB
003E
FD7C
05A5
0522
00E5
03D1
FB98
FF8B
0198
FF61
01A7
FECA
0057
FDFE
FB09
FE92
FF60
FFB2
FE54
FFAD
FFAF
019D
0046
FFBB
FFA8
FF89
FFAE
FFA8
FF86
FFB7
FFA8
FFAA
FFAB
FF98
FF7B
FFC1
0057
FEEB
FFA2
0050
FDAE
01B6
002D
FF28
FF81
FE6E
FF78
0392
0161
FF40
FFC3
0177
0059
FCCE
019E
FD67
FFD1
FFFC
FEC9
0277
0101
0061
FE01
0195
FD6A
0215
FEC6
FFA7
FFA9
FFC4
FFA7
FFAB
FFFE
FFAA
FFA9
FFA7
FF8D
FF61
004B
0062
0054
FFDA
0013
FFC2
FFA7
FFF3
FFC6
0064
0023
FFB7
0035
00BD
014F
FFD7
FF90
000B
0041
018C
002C
FFFB
0085
FFBB
004E
0008
0021
000C
FF97
006D
0052
00AD
FF75
FFA7
FF79
FFA9
FF82
FF55
FFAF
FFAD
FF85
004F
0055
FF92
FF13
0010
FFA8
FE33
016E
003B
FE9C
FF20
FE18
003B
FF6C
FFA0
FF6B
0011
FF94
FCD7
010A
FFFF
FFA2
0115
0003
FFF9
00C2
012F
015C
0040
0000
012F
005E
FFF4
FFFE
0044
0044
005A
FFCE
FFB3
0051
FFA9
0061
0035
005B
0139
005B
FF11
0004
FF9B
0048
0030
0012
0019
FFC0
FF10
002B
FFD8
FF0A
FFDB
0085
0060
FF12
0042
FF7D
00C1
FF9F
FFDF
0010
007C
000A
0082
00C5
020D
0159
004E
FFA3
000D
FFB5
0051
FF84
FFC4
FF83
0030
FFA7
FEEC
FFA0
FFE7
0024
00FC
FFC9
00AB
002A
00F5
0031
FF97
0154
FFB0
FE35
008E
FE64
FF7F
0267
0021
0047
0008
FEFC
FEE1
013C
FEBE
04D5
0032
00F9
FD0D
FF9F
FFC8
FFCF
FF80
FF8A
FF9A
FF5A
FF95
FFA1
FE8C
FFA7
FF9E
FE6B
FF9D
FF44
FF89
FED4
FE0C
FE5E
0004
FF84
0175
006B
FF98
0030
03B3
FFCB
FFCC
FFA0
FC7F
FF8F
0293
FFB5
FF56
000A
008E
0204
FCEA
035B
00C7
FADF
FF9C
0406
0032
FD9D
FFCA
FFAF
0168
FC77
FE72
FF9D
FFA9
FFAC
FFA7
FF91
FEFE
FF95
FFA7
FFB4
FF03
FE92
003E
0046
004B
00C5
0010
FF5E
0077
0163
FFFC
0113
FFC8
FF70
0084
016E
FFF5
FE5A
FFA7
FD1B
FF95
0080
0047
FF6D
0003
FF1D
0150
002F
001B
FFFC
0198
FE9F
FFD0
FEB4
FF71
FFA0
FF9E
FF78
FF84
FFBC
FF9E
FFC7
0022
FFEB
FEAD
005F
FFFB
FF4C
FED4
011C
FFAE
FF53
FF70
FFBE
004E
FFAF
004B
FFA2
FE16
FFB6
FF07
FF86
0059
FFE9
0065
0086
FFD9
014E
0123
FF8D
FF97
0078
012B
014B
0032
0166
0053
FFAC
FF5E
001C
FF90
FF82
FF9E
000F
FF97
FFF0
00BB
0382
0016
002D
FF94
0030
FDFD
FFDE
007B
0046
FFA1
FE82
0015
FFBB
FFF0
FFA6
FEF3
FDA2
0033
00B4
FFAD
0070
FFD8
FFA2
FFC6
FFFA
009A
FF99
FFAF
FF96
FF8D
FDD9
000B
005F
FFA9
FFA9
002A
FF65
FFAD
001F
0009
0028
0043
FFD4
FF9C
004E
FFA7
0014
0093
FFB9
FFA8
FFA0
FFA1
FFBE
FFB1
FFB1
FFF8
FEF4
FFA0
FFB8
FEA6
FFDE
0049
FF85
FFE8
001E
FFC5
0052
0138
0046
FFAA
000F
0058
FE5D
FEEC
0004
003C
0071
000D
004A
005E
001F
004A
FFD3
011C
00E4
FFBE
FF9B
FFA9
0038
0041
FFBA
FFF2
FF4B
FFAF
FFA4
FF3C
FFD0
02DD
0056
003D
FFF3
006E
0027
0013
FFAE
002F
002F
FF97
0049
FFA5
0055
FFD3
0023
0022
0029
FFA4
FC72
FF9C
FE7F
FFBE
FFA6
0039
006F
0033
FFD0
FFF1
0167
005A
0011
0231
FFAE
FFBC
FE51
FFB3
FF19
FFD8
FF3A
FFA7
0066
FF5B
0123
0122
0046
0017
0041
003B
005E
0032
FFE0
FFA7
0043
004E
FFB4
FFA1
0031
00EF
0065
0046
FFBE
FFA9
FFBF
FFA1
011C
005A
FFE7
FFCD
FF8C
FF68
FF9A
0131
00BB
01BF
004E
0054
FF9F
FFA1
FF0B
0041
003C
004A
0017
005B
FF6C
002A
0021
0017
FFA8
FFB4
FF6B
FFF8
FF95
0034
FFCE
FFBB
FF89
FFCF
00E4
001F
018C
FF3F
0027
FFD5
FDE2
006E
005B
003E
0018
FFA3
FFAF
004D
0051
FFC3
FFAF
005E
0004
FFA6
FFE3
0027
0016
004A
FFF7
0056
FF84
FEF0
FFDC
004F
0031
FFEE
FF91
FF7B
FFD2
FEA7
FFA0
FF01
FFE1
FEDF
023B
FF4A
FFDA
0044
FFC9
0015
FF68
FFEA
00E3
FECA
FFB7
FFE7
FFD7
FFA9
007F
0045
0017
0027
FF96
00A4
009F
0006
FDA9
0035
FFA1
FF80
0012
0068
FFFA
FFBE
FFA9
007D
0043
0020
0079
01C6
FF92
FF8B
FECE
FF81
FFBB
0015
006E
FFB7
FF94
FFF2
003E
FFA3
FF8B
0031
FFA1
0151
FF4C
003E
004B
006C
FF58
FFB8
FFA6
0033
FFD3
FFE9
0017
00A5
0023
FF49
FF30
0045
00B2
FFA1
FFB9
0056
0052
0057
FFE1
0020
0006
0037
00D3
FF47
0035
FF33
FFB1
FFBC
0030
0053
FFE4
FFF0
FF90
FFCA
FFB2
005D
0014
00B6
FFE5
FE23
003E
0126
0019
FFB3
00A8
001D
0098
FFE7
0000
0001
0087
0045
005B
003A
0181
FFC2
FF0A
FFDA
0038
003A
FF4D
FD8B
FF93
00F6
FFB1
FF34
002C
FFC1
FFCD
002E
00BC
FFBD
000A
FFA2
FFB3
FF8A
0083
007C
FF8D
002E
FFAB
00AB
FFF3
0139
FFD3
FFA6
FF5E
006A
0017
003C
FFFD
FFA7
0069
FFE6
0052
001E
002B
FF51
0032
FFBE
00A9
FE55
FF84
FFB9
FF96
0034
000D
FF08
FE23
001D
002F
FE9A
004D
00EE
00B4
FFB2
0042
005A
001F
FFAF
003D
0017
001E
003C
0064
0175
FFAC
0004
FEC4
FFC5
FF75
0040
FFE4
FF2D
FFE4
003C
FEFF
0047
0012
FFD5
0041
0118
FFE4
0081
FFE0
005B
FFF4
002C
0047
FFAB
0021
FDC7
003C
005A
FF90
004A
001D
FF2A
FFAE
0056
FFA4
FFE3
FFDF
FFD9
005B
FF95
FFF1
FFAE
0053
005B
0012
FFBD
FEB1
FF8B
FF6B
FFAD
FF96
FFE7
FF16
FFB9
00B2
0046
0035
005A
0004
FFA7
0045
FFA6
0067
0048
005B
FFCA
FFF6
0055
0014
FFAA
0032
FFEF
008D
FF6E
FFD3
FE5E
0043
FFAE
FF5F
0013
0086
FFC3
FFAB
FF7D
0015
FFD6
FFCF
FF88
0031
FF7A
FFBC
0065
003A
FF9C
FFA2
FFA3
FFB3
FFE9
003B
004F
FFA8
0093
FFEA
0048
FF8B
FE41
FFB0
005B
0035
FFA6
FF89
FFDF
FFBA
0058
FF9A
FFEF
FF88
FFF1
0029
FEDB
FFAF
FFFB
001D
004D
FF82
0036
FFEA
0166
000F
004F
FFEC
003A
003D
0046
FFBB
FFD3
FF8D
FF86
FFAA
0080
FFAF
FEB9
FFEA
FF41
0186
FF55
FF5E
FFE0
FF2E
00C2
00B2
FFA6
FFCB
0020
048E
FF25
0113
009F
FF3C
FFF9
FF9A
0050
0015
004F
FF7C
FF96
004C
001B
FFAC
FFF0
0058
FF92
FFF3
0068
FFFF
0077
FFBC
0054
FFD8
0019
FFA9
FFD9
FF31
00A1
FF73
FDBB
03DE
F926
0013
FFF0
FEA9
00CF
0153
FA5F
0817
FF97
0041
FE5A
FF79
FED3
FE21
FFB0
FE4D
0034
FFC6
002A
004F
027D
0104
00C9
FFB8
FF27
0008
00A9
0004
0099
FECB
FFBE
FFBB
FF6E
004F
FFC1
FEE3
FFB6
FF8C
FCF6
0240
0003
FF0C
FBBE
FA0A
0224
0158
FFDC
008A
FFA3
F8F3
00AC
0012
052F
FCE6
0018
FE85
01D9
0041
FF7B
0047
0156
FF9E
FFB9
01AC
0105
014F
0041
0056
FFF8
0076
00A4
008C
FFFE
FFC0
FFD2
FE11
0195
0064
00A5
FF9E
FF1F
FFF7
FD21
FFDB
FF95
FF9F
FFCB
FF6F
FF9E
FFB8
014A
0010
FF94
FEE8
003F
0105
FAD7
FFE2
02DA
0000
FFD3
FFA7
FFAB
0127
0088
0062
003F
FFAD
0067
FFDD
FF8F
0114
00EE
00DB
0004
FFC3
FDC8
FF55
0031
FEBD
0043
FCD6
FF94
FCC2
0077
FF6D
0041
0039
002C
0077
00B7
0047
FF96
FFA3
003C
0115
0097
FF9B
0098
0029
FFAC
0057
FFDE
0089
FFD2
FF5A
FE97
FEFF
FFA5
FFCF
FFF4
FFBD
FFE8
0015
FF74
0032
FDB5
0017
0050
001C
FEBA
FF1D
FDB0
0044
002A
FFB1
FFA7
FE71
0010
0001
0072
006B
FFAE
0021
FFFA
FF97
FFB1
0017
001E
FFA5
FFE0
0072
0043
003F
003F
FFA9
FFE9
FF81
FF28
FFD1
FFA9
001D
FFB6
FEF8
0065
FFDA
004D
0040
FFC5
FFA8
FF9F
FFBD
003B
FFB6
0032
FFCC
FFD2
FF6F
FFA9
0023
001B
FF4E
0162
01C3
FEF5
01B8
00AC
003E
002C
FFA3
FF71
00D7
FB14
FFEB
FF8D
039B
FE53
00AB
0067
FF91
0025
FF17
0052
FF55
008E
FD81
FF86
FF4B
FFAC
FF9C
FF3B
005B
FED2
FF3A
0029
FF59
0007
FFE9
FF6C
FFA7
FDC8
FFBC
FFA4
FE5B
FF1A
F752
04A3
FFA3
FEB0
F960
FF74
FEB2
FEC3
F709
0053
0C52
FCC6
00E7
0444
FFD7
FD86
FACC
FFC0
FF02
FF9D
FF97
FECF
FFA9
03D9
FCE5
00DF
FED6
FE54
02AE
0042
0217
FF96
FD91
FE5F
FF35
0044
0031
FFC5
FFF9
FFC1
FF04
FDD7
04D7
FF1E
0160
02A8
F81C
F9C0
FF78
01C1
FD53
F720
F984
0BD0
09F2
06DC
FCD8
FFBF
F95A
00C2
001A
FF2A
FE9B
FFDA
01CE
F817
FE4F
FA34
FEA0
026C
FF9E
FB60
FE37
FE16
0158
FF58
01D3
0026
FF96
0048
0041
FEA4
FFA7
FEF3
FFD9
0033
FFAC
FD3E
FADB
FB9C
FC69
FF70
FDC9
FFC0
0055
FF90
FF89
FF55
0267
FF95
FF10
FFC8
009C
FFE7
01A1
FFCF
00CA
006F
011C
00B3
0045
01EE
00AA
FFC7
FEB8
01EB
0148
0219
FE7D
FD6F
0037
0137
FFAF
00CA
FF17
FF99
FF89
0067
00FF
FFB8
0008
FFC7
FFF7
004B
0007
FF89
0032
0034
0008
0122
0052
FE92
0054
0004
0184
FF88
FF9E
009B
FF7A
FFFB
FF80
0067
FFA4
FF97
0079
003B
FFA6
FFFD
FFA8
FFB4
0092
0060
FF87
FF71
FE5E
FF9B
FFA1
00BC
FFB5
FF6E
FF27
003B
0055
0033
0018
003E
0051
FEBC
003B
0092
FFB6
004E
FFE5
FF13
FFBB
FFBC
003A
FFAE
FF6B
FFDA
0042
FF1C
FFCE
FFC2
FFC8
0067
FFA1
0033
FF85
0006
0017
FFF2
FFB6
0035
FFD9
000F
003F
0018
FFE0
0048
0077
FFB2
00AC
FFB3
FF26
FF14
FFA9
012F
FF98
0318
FF67
0022
FFF9
FFC0
0038
FE37
FFF5
FF99
0030
FF66
0051
FF58
FFB9
FFAB
001C
FFC8
0116
FE1D
FDD3
017E
FE29
0043
0076
FE85
FFC4
0083
0075
FF4E
FF9D
FEED
FE88
FFB9
FFA1
FF79
FFA8
FF81
FF3F
FED2
0596
FFB2
FFC7
00E2
0070
0085
FFD6
FFB6
FEB5
0103
FFA8
004C
FF76
0414
00DA
003E
0064
FFDD
0094
FFA5
0077
FF54
001D
FDEF
FFEF
FBC3
0076
F9A2
0104
FE9D
FF6C
FC92
FFBD
FF99
FF7D
FF82
0040
007A
FD25
FFC8
FFA2
FFF7
0054
FFB9
FDF8
FF96
FCF8
FDF5
FF3F
0143
FF01
0514
FF2A
005E
0A94
0347
FEDF
0291
F9CC
FE3B
FFB3
028D
03CE
0026
023C
F9A8
FD23
F707
FEBB
FF2A
FF54
FC36
FBF5
003B
FD15
FE96
0095
FFF5
004E
0143
FF9B
FFD5
FF7F
FE04
FFD0
FF09
016A
0051
FEB6
FF42
FF10
FEEE
0009
0116
0175
FE42
FF4F
007D
FF2B
0346
FFFF
FCA8
FFD7
0091
018F
00C0
FF9A
FFA4
FF34
FFBC
FF85
015F
FFE9
016F
FDE6
0191
FF77
00D8
FF8A
FE84
0047
00CA
FFFF
007C
FEF2
0052
FFD8
FE94
FED9
0030
FFA4
0009
FF89
FFA2
FFC1
0042
0001
FFF8
004A
FFA1
FFBB
FF2E
006E
000A
0078
000F
FFAB
011A
00D3
008B
FFBD
00A5
0039
00A5
FFB6
0033
009F
00F8
FFC9
FFF9
FF63
002E
FF65
FFBB
FE6F
FFC9
FFB2
00C7
FFA7
FFA7
FF24
0037
FFC7
0071
0048
FF0F
FFA6
FE84
0070
FE48
FD7C
FFC5
FF4C
0073
FF52
001A
FF9A
FEBF
FE36
FD61
0068
0008
FFE7
0085
0005
019E
FFF7
01E8
00B3
0059
FF98
0002
010E
0020
FFD3
005D
FFE2
0052
FFA1
FFE6
009C
004A
00C5
0068
FF9B
0024
FFCF
0043
FFAA
FFB4
FFB1
FF0C
FFB4
FF44
FFC2
FF9D
FFA6
FF60
0026
FEBC
FFF6
FFD0
FE94
0047
0008
0005
FFB1
FF21
FFD0
00A6
012C
00C9
0127
0128
00B1
0040
01D9
009A
FFE2
FFB3
FFE6
FFE4
FF7A
00C4
FFBD
FF75
FF42
FE7B
0210
01C9
0000
00B6
FFB0
0136
001F
FEDF
002C
FFA2
FF8E
FFAE
0012
0176
FFE7
FF83
003C
FF99
FC01
FCB8
01CC
FEC2
011B
004D
0067
FE6D
FFA2
0159
004A
FE5D
FDA7
FF56
00AB
FE7F
FF10
FFC5
FFC0
FEE8
FBDD
FFA7
FF0C
FF92
0023
0048
FF9E
FF9A
FFB5
FEBE
003A
FFB3
01EF
0373
FF0C
FE8E
032B
FFFB
FEFE
FF65
FFF3
FE2C
0004
03CE
FFD3
0038
00E2
FFF5
FD5E
FE8F
FC1A
FFB7
FD13
FF52
000B
01B2
FE33
FFD4
FF1C
FF86
FF9E
FFE4
FF87
FF52
FF9E
FF82
FFA1
FE32
FFC3
FFD4
0023
0124
0222
FFE4
0030
003C
FFB7
FEFA
0012
FEFA
FF08
0078
0054
FE63
FEBD
FF95
F98B
00F5
FEF7
0174
0190
FB58
0152
05C0
FDEB
002D
0044
0036
FFB4
FFCA
FECA
FFA3
FF9C
FFB0
FFAC
FFA5
0030
FFC9
FF35
FEA6
FD3E
FEF2
0046
0005
001E
FF70
FFC3
0024
FFCC
FFC3
FFD4
FFCA
0078
004A
0071
FF0F
0040
FF88
FFA1
0043
0043
0021
FFC0
0021
007E
0066
001F
FFB0
00EB
0155
0048
FFAC
0037
FEB9
FF9E
FEC4
FF82
FFAD
FF9D
007E
FFB3
0055
FE91
FFC2
03EA
FFAF
007A
FFA2
FFAB
0018
FFB5
FFB0
FFE0
FFC6
FFA2
FF2D
003A
FFF9
FFEF
002D
0015
FFB6
0035
0046
FFB9
FF56
000B
FF9E
0015
004A
FFFF
FF52
002C
000B
000D
00E5
FFD6
FFAD
FF7C
0018
FF7A
FF48
FFE6
FFA8
FE11
FFF2
FF92
0105
FFA2
0028
FF5E
0054
FFA9
002B
FF92
0050
003C
FFF1
FFCA
000F
0041
FF9D
FF5B
003C
0033
0053
007B
001C
0038
FF8E
FFAC
0012
FF96
003F
FF1F
0001
0026
FF91
FFBA
FFCB
0038
0062
003A
003F
0009
FEBD
FFEA
0013
FFEA
FF8C
FFCA
FFE6
FFB8
FF99
009A
FFD1
0049
FF7A
FF28
FFCD
FF64
FFB1
FF8F
FFB1
FFB3
FFA3
FFC7
0086
FF74
FFC6
0003
FFAC
0035
FF97
FF49
FFAA
FFF1
FFA9
0007
0062
FF99
003B
0021
007D
0039
FF9B
0048
0033
0005
0051
022C
0039
0050
FBC6
FFC4
FF95
0099
00BA
0025
007B
005A
FF58
004A
0046
FFA9
0091
FFD5
0023
FFA4
FF0E
FF92
004F
FFBA
0037
016E
FF2E
FEA7
FFAC
FFEF
FFA2
00FC
FC25
000D
FF1E
006E
FFB9
0052
00A2
FF92
0088
FFF7
0075
003B
0033
0040
FF76
FDF6
0023
0014
FFD8
002C
002B
FFE5
0014
FFA8
FF84
005C
FFF6
FF9E
003E
0023
003E
0038
FF64
0043
FFA0
FFC8
FFAE
0048
FFCE
FFA4
FFAA
FF95
FFAC
FFAE
0036
FF0B
FF7B
005F
FFD1
005C
0017
000D
FFAE
00B8
006C
007A
004B
FFA6
056F
0025
FFAF
FFB8
FFB1
FFA6
0047
FFA3
FFC6
FFA2
FF4E
FFA8
FFB0
FFB4
FF7E
005E
FF8F
005F
00CA
004A
FF30
0091
FFD9
FFC5
FFD2
FFBB
FF08
001C
FFAD
FFC8
FFCD
FF77
FFCF
FF55
FF8D
000E
FF91
FFA4
FF8D
FF85
FF99
0016
FFBC
0202
FFA7
004F
0049
FFC6
FFAC
FFAE
FDAF
01BD
FFEF
FEC0
FF8E
0047
0052
0029
0058
FF51
FFBA
0020
FFC5
FF97
FFA5
004D
FFDF
FFC0
FF24
FFF9
00E4
FFD5
FFC5
FFB7
0005
0014
FFD9
FF8C
FFCD
FF2A
FFEB
004C
FF37
FFD0
0015
0068
FF86
FFA8
FF6A
0037
FF57
FF57
0002
FF94
0182
FFF7
0044
0045
0045
FFE5
FE9F
0075
FE99
FF3C
FF9C
FFEE
00AD
FFB8
0037
0081
0006
FF7F
0067
FF77
0028
FF8E
FF5F
00C8
FFCD
0058
0057
006D
0017
0020
FF1B
0033
FF8A
0045
004B
004D
0205
FDDD
00CE
FF7D
FFB7
FFAD
FF03
FEE7
003A
FFA3
0043
0004
0003
FE88
FFEE
FFA1
FFE7
FFF7
FFB3
0060
004C
FFB7
0023
FFF2
FEC9
FEDB
FFF7
FFCE
015C
FFAC
FFB1
FFE5
018F
FF8E
0066
FF00
0159
00DD
FFFF
001D
FF9D
0082
FFA4
FF1C
002A
FEEE
00CF
0064
FF5D
00FC
0047
004C
FF95
FE03
FFB2
FFCC
FFD7
0125
0065
FF52
FFDD
FFEC
0050
005D
FDCC
FF85
003C
0001
FD2F
FFD1
FFC6
FF30
FFCB
004F
FFD7
FFE4
00CC
FE0C
002D
FFB9
0283
004C
01D7
005B
FEB1
FDD3
0014
FFE3
0053
FF8A
FFA5
00FB
FFEF
00B9
FFBD
FFB0
FFB9
0000
FD8F
FFE3
FFC1
FFB2
FF63
FFAC
FFD4
FFB8
0085
FF95
003C
FF57
0048
FEAF
FFC8
FFF6
FFDF
FF04
FF4B
00D5
FDF8
0088
0148
02A1
FE91
01D1
FE29
001C
003F
0066
0126
FFAC
FFE0
0035
FFB3
0087
0000
FE71
0037
FF8D
0044
FF5C
0049
FF19
FFEC
FFB3
FFAF
FFB9
FF90
0019
FD97
FFDF
001E
000B
FFAA
0043
FFC0
FFA9
FFB3
FF8C
FFA1
FFC8
007E
FFCE
001D
00A2
0019
0051
0076
FFAC
FFCC
FFE4
FFD7
FFB2
005A
FFED
FFCF
FF9D
0046
004C
FE27
FFBB
FF6B
FF6B
FFA2
0059
00B6
FFC7
FFE7
0008
FFBB
FFEA
00BC
FFB0
FF27
0081
FF9A
0037
FFAC
0059
0051
004A
0049
007C
00F4
FEEF
FFDF
FFAC
FFF7
000C
FFC5
FFD5
FF9D
FF7F
0038
0012
FC5A
FF05
FF6F
00DA
FF4D
0013
FFC2
FAD1
FE21
FF50
FF00
FFEA
0002
02A1
FF34
0094
FFBD
FF64
0085
FFDB
0027
FFDE
00FD
FFB1
FFB2
FFC2
FFC9
00B5
0052
FF1D
00DB
0031
FF70
0044
0030
0097
0109
0048
02AE
FF55
FF14
0042
0020
FF07
FDB3
05A8
FA7A
F90B
071A
FF0D
089B
F89E
FD0D
05B6
FFF9
F7A3
0052
FFEA
FFCE
FDEA
FCDB
FD01
FE3C
0045
FE01
FB86
0134
005D
0262
FD51
FCD4
FC63
FB8C
FFE8
0034
FD06
FEA5
FF93
FF88
FFE7
FFF8
01EA
FC3B
0130
FEC6
0707
0588
0044
FE5D
F704
0071
0553
00C9
04D7
04C0
FD49
FF43
0880
F945
F8C0
FDA7
FFD3
0569
F9E3
FBC9
FCA3
FBA5
FFB3
F765
FFE1
0248
FF90
F706
FBDB
FB12
FEB2
FF91
FA78
FE73
0070
016D
FD67
FF8A
FF98
FBC5
FAA2
02EB
FF51
048C
FF85
FF99
FC71
019B
FFE9
FCBD
FF58
0572
03C7
037F
FD7E
FFAE
FFF0
FA15
004F
FE95
0667
FC07
FFBC
FD15
FFCA
004A
FF60
FEC7
FF91
FDE7
FFD4
003C
FEDB
FFB8
FF6D
FFAB
FF57
FFA8
00E2
0242
FF96
FFA1
FE75
0029
014C
0033
FE06
FEB2
FD7B
0022
0034
FFC3
FF9F
FEBA
FF6A
FF8B
FFB1
FF84
FF01
02AC
FF62
FF9F
0060
FF13
FF66
004E
0040
0000
0052
003F
0085
0075
FFCE
003A
FF8E
FED1
00CB
FF95
0016
0043
015D
00CE
0056
0047
FFE0
00D7
009B
FE93
FF8A
FF6F
FFF2
000E
004C
0010
FFCB
FFA4
000F
FFC2
FF69
FF8A
FFB4
0038
000D
0045
001C
0163
FD8E
0082
0051
004B
FF7F
FFFC
FFAA
0057
FFA4
FFCF
FF99
FF60
0041
017C
003D
FFB7
FF99
FF5D
FF87
0020
FFA7
0004
FEFF
FF84
009A
FFB9
FFA7
FF7F
0641
FFB7
FFD2
FF9D
FB9C
FF4E
F954
0114
FB01
FFFD
0068
00B4
029F
FF89
000F
FE7B
0145
0001
FEC3
FFBC
FF28
FFA3
FEAF
FE8F
FE60
FFBE
0024
FEE0
006E
009B
006C
FFAE
001A
0242
0353
004B
FE4E
FF50
FF01
003C
0035
FF65
0979
FD30
0003
01DE
FD53
F9FB
030A
FCEE
00DF
FF93
FFA7
FE6C
FE2D
00A9
FFA8
007B
FF84
023C
FB80
FF8C
FDD3
F9C1
FF1E
FFBA
FB8B
01F0
FF8E
FB78
0314
FD83
0231
FE3A
002F
0078
0290
04AB
FF3F
FF0F
0638
FD41
FF46
0112
FE53
F714
F709
0A33
0BED
F709
FDFA
0048
FF6D
F709
FD3B
01AB
05D6
FA5A
FB7F
008F
FF01
0048
0108
F21F
FF9E
F9F6
0046
FFA1
03BB
004F
004B
02C8
FAF2
F9A0
00CE
081C
FF27
FCDE
057D
0503
FF55
FD9B
FDA3
FEB7
FD92
FF4D
FF94
00C3
FFA2
FF6F
FCA5
FE10
FF24
FC48
FF76
040D
FC31
059E
08F1
0056
FE89
FF52
FFBD
0001
0032
017A
FF05
FFBF
FFB7
01A5
FFB1
FD6F
FE04
01BE
00B3
FFA7
FD0C
FFD2
FF42
FFB2
FD6A
0472
FFE6
058A
FFE2
FF7C
F9AC
00CE
FFB1
FFA9
FFAD
FE8F
FE54
FEA1
0000
FE29
FE4B
FFBB
002F
FE20
FFD8
004D
004E
008D
00DB
FED6
FFBD
FE42
0116
008C
FE41
00FB
00BD
00A1
0035
0047
015C
FF99
00CC
008D
FFF8
005D
FEDC
006F
044F
0017
00EC
FFA6
FFC3
FDCB
FFB3
0140
FF4B
0139
0042
000E
0034
00FC
0042
0001
FF3D
FF98
012B
FFA1
004A
0007
FFB4
FFD1
0012
0048
FF8E
0037
FFEC
FDFB
FF9C
0048
FFC5
000A
FF46
0041
0046
FF96
001A
FDAA
003B
FF35
0000
FFA6
FFBB
0056
FFD5
0048
FFEC
FF99
FF87
005A
FFA4
FE0C
FF9D
0075
0006
0045
FFB2
006A
FFAC
005A
0148
018C
FFB0
0237
01B3
FFCD
FFB2
FECF
0019
FFC7
FF93
FFB7
0114
FD3C
FE37
FFB2
FD80
FEE4
003F
FE61
FD53
FFDA
FF2B
0026
FE48
004A
FF9B
FF67
00F6
FDFD
003F
0071
00BD
FFE1
FE7D
FFAD
002C
FC88
FFDF
FD77
FE45
FFB6
FF85
02BB
008A
FF69
043A
FF12
FFDE
FF67
00D6
FF65
FB64
04A2
FEF9
027D
FDE5
03CD
FCAC
F6F4
FEDA
FF7A
FF28
FE20
FE01
01BA
FE0A
FBDF
FF9D
FF9C
FF6B
02D7
02F7
0216
FFB9
0056
FF6A
FFCE
FE74
FF49
0036
FF9C
FFA1
FF7E
0042
FA84
FFA8
001F
FE44
004F
FDC7
0051
FB86
0303
FF80
FB31
0042
0457
FDA1
0194
0056
FE41
FFA0
08EC
F9CA
FF53
FD21
FD3F
03E1
FE3D
FE31
008E
FB83
0236
028F
043F
015E
FD2A
FF0A
FF96
FF98
FEAE
FFE4
FE6A
F99D
FFA4
FE0E
001B
FD80
FEA0
FFC2
FF7F
FE83
FF7F
0056
FBE8
FFF3
FF75
FFB1
FFB8
01CE
FD32
0059
FFA1
FCE9
0E8A
0042
0049
FF96
FD43
FF25
F92F
FEAC
004A
FE0D
FC3D
039F
FE23
0573
FFDA
FFA2
00A4
0098
FFD5
0194
FFA3
00F5
FF57
FF9A
0037
FF09
002F
FFFD
FDCD
0022
0021
0073
FF95
000E
FECE
003A
FF0C
003B
020E
00DF
FDDA
FFC6
FF9D
0034
0091
002F
FFAF
FFC0
0025
FF8D
FFBB
FFB0
FEC7
FF75
0179
FF7A
FFBD
FF9B
0003
FF7C
FF91
FF50
006A
005C
FFAB
0001
0046
0009
003D
004D
FFAE
0052
FF6B
FF9A
FF8F
00A4
FFDF
0032
FFFE
0065
FFB8
FF7C
003C
FF9C
FFA4
FFC7
0021
FF93
FFE6
FFB2
00BB
0194
004A
FF9A
0048
FFB1
FFED
FFC3
FFB1
000B
FF84
FFAE
FFBA
FFD1
0047
004C
FFB4
001E
00C9
0019
FF54
009B
00DA
0060
0025
0040
FFC5
FFC4
00F2
FF7C
FFA7
0042
FE52
004E
0052
0012
0082
FFB0
FE57
FFA0
FECA
0046
FFC4
FDB9
00C0
0022
0078
FF85
FF62
FFAF
FFC7
FF8C
FEE4
FFF0
FFDA
FF9F
0028
0061
FFA5
0045
00F3
FFB3
FFA3
FF82
026C
003F
00B2
001A
00D7
00DB
FFB9
FFDF
FEC3
FE8C
005F
FB1C
0013
002D
0194
0131
FDEA
FFA0
005B
FFB0
FF85
0091
FCF5
0049
FE57
0075
FF56
FEC6
FE6E
FE37
FF8C
FFA2
0058
0040
FF94
0012
0049
FFDC
FFDE
013C
0049
01F0
015C
0074
000D
0006
FEBE
008F
0042
FCCB
FF96
FF40
FC78
FFDC
F9A8
FFC2
FFB6
FEEE
0135
FAE4
FF3B
00B1
0062
FF24
0037
FC9A
FF9F
0426
00BB
FF4C
FDDB
FE54
FE96
FF95
032E
0085
FFB2
FFA7
00A0
004C
004E
0080
01C3
00AB
FFC4
0090
007D
FFA3
FFA1
FFB9
004B
FF2D
FFA1
FEE8
FC98
FA09
0089
FC59
FF93
005A
008F
FFC8
FEB7
00D4
FF97
019B
0115
0048
008E
002E
FF2F
006A
FF00
FED0
FD8C
FD7C
FF95
0288
FED2
FFBF
FFC7
0035
FF85
01C4
0013
FFAF
0051
0034
0049
FF36
FFB8
003F
FFE2
FFA3
FF30
FFF2
0015
FFE4
FDCA
004C
FFAC
0013
FFA8
FFD3
0037
019B
003B
00F0
FFD0
FFFB
0039
00C3
FFC6
00EF
FFB3
FE4F
FE8C
FF49
FFD5
FFB0
FEF9
FF0C
FE88
FFA3
001A
FFCA
004A
0082
FF7F
0059
FFA9
FFAF
FFED
FF89
FF3F
FEF0
FF87
0025
0216
005F
FFD5
FE4D
FFD1
FFAA
0042
FF8D
0090
0059
FFD7
001C
0120
FFF6
FF88
0052
FF98
FF7D
0038
FFCC
FFAC
FFEA
FFC5
FFA4
FFE7
FFD6
0116
FFBE
FF65
FF44
FDA2
0146
FFD9
FF76
FFB5
FF9F
0006
FFAC
0040
FED1
FF91
0008
003F
FF8E
0022
FF2D
FFB1
0001
0022
FFA1
027F
FFAA
FFF1
003B
0048
FFB9
FFAC
0023
FFD3
FF94
FFA6
FFB4
FFE0
0034
FF67
0037
FFB6
003D
00BC
0035
0068
001B
000F
FEE1
0043
FFC7
FF66
FF93
0014
0012
FF95
FE7B
FEF1
FFCC
0039
006A
FFF4
FFA7
0029
FFB8
005F
0042
00C2
0076
FFB4
FFCE
00A6
011F
003D
005F
FFAE
0061
FFE9
FE10
0037
FFE4
007C
FF81
FFDA
FF5E
0035
0046
003C
0151
001C
0009
FF55
00B0
FF9C
FFA8
FE1C
FEA1
0003
FFA3
FFAB
FF87
FFA1
0043
0020
0065
FFC9
FF98
0066
FFCC
0034
0026
FFA5
0011
FF87
0016
00A9
FFF7
02AD
FE82
FFD2
FF3D
0180
0051
FFA0
01A8
00D7
00B1
FFF5
FF66
FFC2
FF3D
0044
0029
00A6
006A
FFA8
FF59
FFD7
0062
FFA3
FFDD
FF9F
FDEE
0047
FFB3
FFEB
0102
0118
FF76
FF97
FECE
0016
003D
003F
FDF1
0018
0039
FFC4
FFB8
0042
0055
FFAD
00A2
005C
015F
FEAF
FFC7
0072
007F
FFF6
0032
FFA6
002F
0044
FFAE
000E
FF99
FF83
FFF0
FFEA
FF90
0060
FFAC
FE33
0044
FFAB
0065
0070
0015
0015
FFE5
0027
FFA0
FE56
0025
005B
FF61
FF90
0078
002A
0050
0048
FFC7
FF95
FFDB
FFC8
0077
0004
0042
FF4A
0026
FFA5
001D
01BB
FFF6
FFE5
FF9E
FF83
FEDE
FFDD
FFD1
0029
007A
0001
0064
FE82
FFAC
FF87
FFB4
FFE0
0098
001A
FF98
001B
0023
FEC4
FD6F
003F
0048
00BC
FE70
FFB5
FFCE
FFA2
FFCD
0041
FF3E
FF99
FFB4
FF73
FF9C
FFA6
0045
0079
FFFC
0046
00E2
FFD0
FFAA
00DB
0035
0003
0030
FFD4
FFA7
0062
00AA
0054
000F
0032
0052
006D
00B0
0031
FF86
001B
FF7F
001B
FFDE
0037
FFF7
FFD1
FF62
005D
FFB3
FFB6
0031
FFBB
0044
000E
FF41
FF9B
FFA2
FC7E
FF5B
0057
FFA7
014C
0051
0048
FFD6
FFB5
FFBB
005F
FFA7
003D
FFA9
FFB4
FFA1
FFB2
004C
FFBD
FFB7
0136
020E
0119
008D
004C
0066
FF31
FFBD
00D4
0031
FDCA
FF4C
FF97
FF63
FFA2
FFD3
0012
0045
001B
010C
FE11
0010
0025
FF8B
0049
FFA6
FDA8
0046
00AB
FFDB
FEFB
0009
FE01
0006
FFA7
FFDB
001F
FFA6
005E
00F3
0092
00E8
FFD1
002B
FFA4
FFC6
FFB4
00CC
FEF1
0064
FF76
0016
FEF8
FECB
FFB7
FFA7
0044
FFBB
FFDB
0062
FFB1
0049
FFA9
FFE2
0013
FFA6
0041
FFD8
FECB
003C
FEB1
FE6D
FB66
017C
005F
FEE8
FFB7
FEDF
FFC8
FE50
FF6F
FFAA
0030
FF15
01A4
0016
FF8E
FFA5
FF08
FF5C
FF99
002F
0257
FFFD
FFDC
FEBF
FFE7
FFBD
0052
FFA1
00C4
FFC4
0051
001B
FFAA
FFE5
FFE0
0042
0019
FFD7
FFE5
FFF7
FE8C
00CB
0056
007F
FEEE
FEC5
02C5
0042
0012
FF0A
FFA5
0036
FF78
FF9C
FFA0
FFA1
0017
005E
FF7F
0042
FFDF
002C
0070
0114
FF8D
FF47
FFD8
FFA0
002F
FFE8
0131
01C1
FF11
FFA6
0008
008B
FF8E
FE54
003B
002A
FD65
FF70
006B
FFD4
FFFA
FFCE
0017
0054
005E
FFAF
005D
FFA6
0070
002F
FFAB
0115
FF56
0048
FF95
FFBF
FF73
FFDF
FFB2
002C
007E
0096
FFB4
0027
FF50
FEF7
FF89
FF98
FE6F
FFD4
0002
FF42
FFC7
FFD6
FFA6
FFA0
003C
0026
FF85
003C
FF79
0030
0113
005F
001A
00A9
FFB6
FFFD
011A
0048
004D
0027
003B
FE0E
FFAB
0A04
FEF8
FFA8
FFC1
FEBF
FD58
04B2
FAD0
FE99
01C4
FF77
0013
0107
003A
FF97
FF9C
FF5B
FF83
FF8B
FEEC
FF14
FF67
FFB0
0054
FF7C
FFC6
FF40
FEC4
FF90
002E
FF81
0079
0016
FDCC
FF72
FFDD
004E
000F
004A
0046
FF9A
FB72
0158
05A8
FF78
FEF8
FDB8
0042
0175
030C
F8F2
FFC0
FFE3
FC5A
FFA1
0253
0091
FF65
FD66
00FB
00F7
FE50
003A
FF8E
0048
0055
FEEA
008F
01CD
022D
0043
006E
FEB6
02E3
FFB7
015B
0068
FF70
FC32
FD42
FC9C
FED1
FDD7
0202
00B0
005B
01A4
01E4
01BE
FF8D
FE2A
FC67
FD5A
FE4A
FFCA
F993
FFC2
004D
0014
FD45
002F
014D
FF8F
FF87
FFD8
01B9
00C7
004C
0035
FD69
FD26
00D2
FFA9
0149
FFCA
FF6C
0295
FC0D
FFA3
FD3F
01E6
FD20
0269
FF87
FBC5
FBCA
FFEA
FFC9
0014
0128
FFA7
0042
0189
FFB4
FF4E
FB06
F727
FFAD
FA85
010D
02DD
FBAD
0018
0050
004C
FFC4
00A1
00A2
0048
0032
FFCB
FFB7
FEAB
0011
002F
00B7
0002
003C
05A9
FE91
FF1D
FBF7
FFF6
FEDF
00DB
0258
FFF6
FF95
01F5
FF2D
FFFE
00A3
FFAF
0011
FFAF
01D1
0051
FFFC
FFA6
003D
0002
FCAC
02D7
FF01
0050
FFD4
013F
FF98
FF17
FD9C
0045
FFDD
0051
FF4C
0074
FFC2
004F
0039
0088
FD29
FEFD
0218
FFB3
0044
FFAC
0038
FFB3
005A
FFA7
FF66
FFF9
FFBC
007D
0023
0005
FDBA
0058
FFA4
FFDA
00CD
004C
FF61
FFAB
FFCC
006C
FF46
0006
FF1C
FED3
007D
FFAB
FFEC
FFCD
0008
008A
FF87
0046
0079
FFA7
0044
FF92
002E
0059
FFDB
0074
FFE7
005C
FFC5
FFD9
0038
00A4
0107
FF97
FFDC
0004
03C7
03D7
FB57
FFA8
01D5
FD64
FFA3
00EB
0030
FF07
FB1C
FD86
FFA2
FE7B
FDEA
0077
FEF9
00DE
00F3
FFA3
FF9C
0176
0050
FF50
0079
FF4E
01BD
0046
FE60
0072
FFA3
01A9
FFF9
0027
FE82
FBE1
FC35
0203
FFF5
00EB
FF70
FED2
FFB3
0438
FC46
FBC6
FAC1
0493
FD4F
FC3C
FB11
00BC
FF8C
006F
FD88
FC6D
FEAC
FE6A
0055
0087
0159
030C
003C
0048
FFA5
0481
FC79
00EF
FF05
0213
0081
00BC
024E
FFA4
0270
FBDB
01EA
FCAA
003F
0132
0011
0008
013F
FF79
FF9F
FFA0
030A
FF01
FB83
F706
007B
0A99
045D
F83E
F73E
FC90
02F5
06BA
FEAB
FB87
003D
FA32
0187
004A
01AC
FC2E
07A6
FD41
FC5E
003E
F9E7
090B
FE3F
04DE
FFC2
F967
FC9D
F713
042E
FCAC
002B
FF9B
006E
010A
FDDC
006A
0007
02D3
FD96
FFF7
FFAB
FAC8
F87B
016D
FFCC
02F7
03F7
00B9
00D4
F9B4
0169
033F
01FD
004F
F8CC
0663
FFED
FDAF
FFB6
FF83
00E6
FC48
0167
FE7B
FCE6
FD59
FFAE
045E
00BC
FF84
0015
04A7
FA78
FD17
FCF6
017C
FEAA
FFDC
FF37
00DE
00EB
FF3C
FF82
FF8E
FFE9
005A
FFB7
0035
FFAB
0054
FFF0
010A
003F
0056
004B
0144
FD05
0153
FFA1
0044
FFD5
FF70
FFA7
0039
00D0
FF2A
FFCA
FF9C
FF22
0057
FFA4
FE31
FE49
FF34
016D
0057
0097
0066
FF60
FFDF
00C9
0030
FE8A
0125
FF7F
FFE3
FFAA
FFC0
00A9
FF37
0022
FFF0
009E
FEF4
FFE8
FF29
FF8E
FDD3
0065
0068
FEA9
FD59
003F
005B
0021
00D4
0027
005C
013E
FF93
0064
0053
FFC7
FFA0
0076
02AD
003F
FFE8
FF23
015A
FFB1
FF9B
0029
0020
0080
0053
FF9B
001F
FFD1
FF8C
FF8D
FFE2
FEAA
FC88
FF3F
FF86
FE64
FFA2
FFA8
002F
FC80
0046
FFD6
FF7A
FEEF
FEFF
0220
00F4
FF46
0174
0037
004F
0190
018B
006D
01FA
FFCB
0054
00B3
0241
FFB1
FFE9
FD76
FD72
FC95
FFC4
FDD9
0129
FFEA
FD61
FF1A
FFB6
0346
FEAA
0213
FC5D
010C
02BA
F702
FE08
FF99
FFBB
FF9B
FB3D
00E5
FB89
FBD6
0279
FE6B
0129
01E3
0169
FFE0
FF9D
FF23
013A
FF98
01DD
00B3
FFA8
FEF3
FE60
FFA6
02E0
FFA6
F6E6
010A
0141
FD36
FFD1
FF74
FCEC
00FF
01DA
FFEE
FFA5
00BB
FF74
EE6E
FFFF
0198
05D2
02DD
FCF5
0030
0BA5
04F9
FE22
FB7B
F887
FF46
FE8B
FCD4
F728
055D
FF40
F757
02E2
F738
0009
00B7
FF6F
FB69
F70F
01BF
FABA
0292
FB69
009C
FF9D
FB81
FEE5
0258
FB53
008A
02B9
01C5
0078
00EE
FD08
FF5D
FCAC
FF29
FFA2
FBA6
00E4
00DA
007D
054C
0445
03F7
FF90
FB93
02F0
FFEA
F75B
01EC
FACA
04D3
00FE
013C
FFA1
FD79
FF5E
FC63
FF78
FC94
0262
FD15
FDEB
0041
FFA8
003F
FFA2
FFB3
FED3
FD29
008E
FF13
012E
FF83
002F
0036
008B
004B
00AC
003A
005D
003B
FFA2
0045
FE6E
00EB
FF8E
00A4
FFAA
0050
FFA7
FEF4
FFCE
FE28
FEDB
FEF6
FF15
FFAA
0028
FF9D
0007
FED5
FFD1
FF0C
FF57
0021
0055
0056
0050
003E
007E
FFF2
0047
0062
FFEE
00A2
FFD3
FFB2
00D1
FFA7
FF8C
FFA8
002B
FF80
FF6C
0029
FFC5
FFA8
FFB2
00BF
0052
FF40
FF26
FFA6
007A
0021
FFE7
FE51
006D
02E6
FFBF
0020
000F
0044
0024
FFA3
010F
010B
FE6E
FF64
FFB7
FFB1
FFF2
FF90
0050
005F
0040
FF8A
0012
0025
FFF4
FF9A
0063
FFE7
FEA2
013F
FFED
FCAB
FFF9
007D
01B6
002C
014F
FF91
0026
FFAD
FFC8
017B
0093
FF73
FEA8
FF50
003F
001C
FFEB
0011
015B
FFFE
0045
FF19
0190
0071
FF62
FD31
FFCF
FFA7
FFAF
0039
FE94
FFA7
0031
FEE3
FFBB
02D4
FFA5
FF84
FD83
FF97
02A7
FF2A
FDCE
FFA5
FF6B
FF11
00A5
02A5
0054
002B
FF15
FFCB
010B
FEF3
0066
FFD2
0037
FFF9
FFE4
004C
FEDD
FF15
FFBA
FD57
003C
FF93
020C
FF5B
FD68
00B0
0024
FFA7
FE16
FF1A
0021
014D
015F
0077
003E
003E
005B
FF8E
